{
  "version": "1.0",
  "truncation": null,
  "padding": null,
  "added_tokens": [
    {
      "id": 0,
      "content": "<|endoftext|>",
      "single_word": false,
      "lstrip": false,
      "rstrip": false,
      "normalized": false,
      "special": true
    },
    {
      "id": 1,
      "content": "<|system|>",
      "single_word": false,
      "lstrip": false,
      "rstrip": false,
      "normalized": false,
      "special": true
    },
    {
      "id": 2,
      "content": "<|user|>",
      "single_word": false,
      "lstrip": false,
      "rstrip": false,
      "normalized": false,
      "special": true
    },
    {
      "id": 3,
      "content": "<|assistant|>",
      "single_word": false,
      "lstrip": false,
      "rstrip": false,
      "normalized": false,
      "special": true
    },
    {
      "id": 4,
      "content": "<|im_start|>",
      "single_word": false,
      "lstrip": false,
      "rstrip": false,
      "normalized": false,
      "special": true
    },
    {
      "id": 5,
      "content": "<|im_sep|>",
      "single_word": false,
      "lstrip": false,
      "rstrip": false,
      "normalized": false,
      "special": true
    },
    {
      "id": 6,
      "content": "<|im_end|>",
      "single_word": false,
      "lstrip": false,
      "rstrip": false,
      "normalized": false,
      "special": true
    },
    {
      "id": 7,
      "content": "<think>",
      "single_word": false,
      "lstrip": false,
      "rstrip": false,
      "normalized": false,
      "special": true
    },
    {
      "id": 8,
      "content": "</think>",
      "single_word": false,
      "lstrip": false,
      "rstrip": false,
      "normalized": false,
      "special": true
    },
    {
      "id": 9,
      "content": "<pad>",
      "single_word": false,
      "lstrip": false,
      "rstrip": false,
      "normalized": false,
      "special": true
    },
    {
      "id": 10,
      "content": "<unk>",
      "single_word": false,
      "lstrip": false,
      "rstrip": false,
      "normalized": false,
      "special": true
    }
  ],
  "normalizer": {
    "type": "Sequence",
    "normalizers": [
      {
        "type": "NFD"
      },
      {
        "type": "StripAccents"
      }
    ]
  },
  "pre_tokenizer": {
    "type": "ByteLevel",
    "add_prefix_space": false,
    "trim_offsets": true,
    "use_regex": true
  },
  "post_processor": null,
  "decoder": {
    "type": "ByteLevel",
    "add_prefix_space": true,
    "trim_offsets": true,
    "use_regex": true
  },
  "model": {
    "type": "BPE",
    "dropout": null,
    "unk_token": null,
    "continuing_subword_prefix": null,
    "end_of_word_suffix": null,
    "fuse_unk": false,
    "byte_fallback": false,
    "ignore_merges": false,
    "vocab": {
      "<|endoftext|>": 0,
      "<|system|>": 1,
      "<|user|>": 2,
      "<|assistant|>": 3,
      "<|im_start|>": 4,
      "<|im_sep|>": 5,
      "<|im_end|>": 6,
      "<think>": 7,
      "</think>": 8,
      "<pad>": 9,
      "<unk>": 10,
      "!": 11,
      "\"": 12,
      "#": 13,
      "$": 14,
      "%": 15,
      "&": 16,
      "'": 17,
      "(": 18,
      ")": 19,
      "*": 20,
      "+": 21,
      ",": 22,
      "-": 23,
      ".": 24,
      "/": 25,
      "0": 26,
      "1": 27,
      "2": 28,
      "3": 29,
      "4": 30,
      "5": 31,
      "6": 32,
      "7": 33,
      "8": 34,
      "9": 35,
      ":": 36,
      ";": 37,
      "<": 38,
      "=": 39,
      ">": 40,
      "?": 41,
      "@": 42,
      "A": 43,
      "B": 44,
      "C": 45,
      "D": 46,
      "E": 47,
      "F": 48,
      "G": 49,
      "H": 50,
      "I": 51,
      "J": 52,
      "K": 53,
      "L": 54,
      "M": 55,
      "N": 56,
      "O": 57,
      "P": 58,
      "Q": 59,
      "R": 60,
      "S": 61,
      "T": 62,
      "U": 63,
      "V": 64,
      "W": 65,
      "X": 66,
      "Y": 67,
      "Z": 68,
      "[": 69,
      "\\": 70,
      "]": 71,
      "^": 72,
      "_": 73,
      "`": 74,
      "a": 75,
      "b": 76,
      "c": 77,
      "d": 78,
      "e": 79,
      "f": 80,
      "g": 81,
      "h": 82,
      "i": 83,
      "j": 84,
      "k": 85,
      "l": 86,
      "m": 87,
      "n": 88,
      "o": 89,
      "p": 90,
      "q": 91,
      "r": 92,
      "s": 93,
      "t": 94,
      "u": 95,
      "v": 96,
      "w": 97,
      "x": 98,
      "y": 99,
      "z": 100,
      "{": 101,
      "|": 102,
      "}": 103,
      "~": 104,
      "¡": 105,
      "¢": 106,
      "£": 107,
      "¤": 108,
      "¥": 109,
      "¦": 110,
      "§": 111,
      "¨": 112,
      "©": 113,
      "ª": 114,
      "«": 115,
      "¬": 116,
      "®": 117,
      "¯": 118,
      "°": 119,
      "±": 120,
      "²": 121,
      "³": 122,
      "´": 123,
      "µ": 124,
      "¶": 125,
      "·": 126,
      "¸": 127,
      "¹": 128,
      "º": 129,
      "»": 130,
      "¼": 131,
      "½": 132,
      "¾": 133,
      "¿": 134,
      "Â": 135,
      "Ã": 136,
      "Ä": 137,
      "Å": 138,
      "Æ": 139,
      "Ç": 140,
      "È": 141,
      "É": 142,
      "Ê": 143,
      "Ë": 144,
      "Í": 145,
      "Î": 146,
      "Ï": 147,
      "Ð": 148,
      "Ñ": 149,
      "Ò": 150,
      "Ó": 151,
      "Ô": 152,
      "Õ": 153,
      "Ö": 154,
      "×": 155,
      "Ø": 156,
      "Ù": 157,
      "Ú": 158,
      "Û": 159,
      "Ü": 160,
      "Ý": 161,
      "Þ": 162,
      "ß": 163,
      "à": 164,
      "á": 165,
      "â": 166,
      "ã": 167,
      "ä": 168,
      "å": 169,
      "æ": 170,
      "ç": 171,
      "è": 172,
      "é": 173,
      "ê": 174,
      "í": 175,
      "î": 176,
      "ï": 177,
      "ð": 178,
      "ñ": 179,
      "ó": 180,
      "ô": 181,
      "Ā": 182,
      "ā": 183,
      "Ă": 184,
      "ă": 185,
      "Ą": 186,
      "ą": 187,
      "Ć": 188,
      "ć": 189,
      "Ĉ": 190,
      "ĉ": 191,
      "Ċ": 192,
      "Č": 193,
      "č": 194,
      "Ď": 195,
      "ď": 196,
      "Đ": 197,
      "đ": 198,
      "Ē": 199,
      "ē": 200,
      "Ĕ": 201,
      "ĕ": 202,
      "Ė": 203,
      "ė": 204,
      "Ę": 205,
      "ę": 206,
      "Ě": 207,
      "ě": 208,
      "Ĝ": 209,
      "ĝ": 210,
      "Ğ": 211,
      "ğ": 212,
      "Ġ": 213,
      "ġ": 214,
      "Ģ": 215,
      "ģ": 216,
      "Ĥ": 217,
      "ĥ": 218,
      "Ħ": 219,
      "ħ": 220,
      "Ĩ": 221,
      "ĩ": 222,
      "Ī": 223,
      "ī": 224,
      "Ĭ": 225,
      "ĭ": 226,
      "Į": 227,
      "į": 228,
      "İ": 229,
      "ı": 230,
      "Ĳ": 231,
      "ĳ": 232,
      "Ĵ": 233,
      "ĵ": 234,
      "Ķ": 235,
      "ķ": 236,
      "ĸ": 237,
      "Ĺ": 238,
      "ĺ": 239,
      "Ļ": 240,
      "ļ": 241,
      "Ľ": 242,
      "ľ": 243,
      "Ŀ": 244,
      "ŀ": 245,
      "Ł": 246,
      "ł": 247,
      "Ń": 248,
      "Ġt": 249,
      "he": 250,
      "in": 251,
      "Ġa": 252,
      "ĠĠ": 253,
      "on": 254,
      "er": 255,
      "Ġthe": 256,
      "re": 257,
      "at": 258,
      "Ġs": 259,
      "Ġo": 260,
      "en": 261,
      "is": 262,
      "Ġw": 263,
      "an": 264,
      "Ġc": 265,
      "or": 266,
      "ed": 267,
      "al": 268,
      "es": 269,
      "Ġf": 270,
      "it": 271,
      "Ġof": 272,
      "Ġan": 273,
      "Ġin": 274,
      "ar": 275,
      "Ġp": 276,
      "ion": 277,
      "Ġb": 278,
      "ing": 279,
      "as": 280,
      "ĠĠĠĠ": 281,
      "le": 282,
      "Ġand": 283,
      "ro": 284,
      "Ġto": 285,
      "ic": 286,
      "Ġd": 287,
      "Ġm": 288,
      "ent": 289,
      "ou": 290,
      "Ġh": 291,
      "ĠT": 292,
      "ct": 293,
      "Ġre": 294,
      "Ġ1": 295,
      "Ġe": 296,
      "il": 297,
      "ĠS": 298,
      "st": 299,
      "om": 300,
      "Ġn": 301,
      "ĠC": 302,
      "ĠA": 303,
      "et": 304,
      "Ġth": 305,
      "Ġis": 306,
      "am": 307,
      "el": 308,
      "Ġl": 309,
      "ol": 310,
      "ĠĠĠ": 311,
      "ra": 312,
      "ation": 313,
      "Ġfor": 314,
      "un": 315,
      "iv": 316,
      "ig": 317,
      "ut": 318,
      "ow": 319,
      "ch": 320,
      "ĠI": 321,
      "id": 322,
      "us": 323,
      "im": 324,
      "Ġ(": 325,
      "Ġ2": 326,
      "ur": 327,
      "Ġ\"": 328,
      "Ġon": 329,
      "ĠM": 330,
      "ot": 331,
      "ul": 332,
      "Ġg": 333,
      "ce": 334,
      "Ġst": 335,
      "ĠP": 336,
      "ly": 337,
      "ĊĠĠĠĠ": 338,
      "ir": 339,
      "ĠThe": 340,
      "ĠB": 341,
      "ĠH": 342,
      "Ġwas": 343,
      "um": 344,
      "if": 345,
      "ers": 346,
      "Ġ=": 347,
      "ad": 348,
      "Ġbe": 349,
      "em": 350,
      "Ġas": 351,
      "ĠD": 352,
      "Ġcon": 353,
      "ith": 354,
      "ay": 355,
      "se": 356,
      "her": 357,
      "and": 358,
      "Ġv": 359,
      "qu": 360,
      "ĠF": 361,
      "ĠR": 362,
      "ter": 363,
      "Ġwith": 364,
      "Ġthat": 365,
      "ate": 366,
      "Ġpro": 367,
      "Ġby": 368,
      "ge": 369,
      "ĠE": 370,
      "th": 371,
      "âĢ": 372,
      "ĠW": 373,
      "Ġwh": 374,
      "Ġal": 375,
      "ĠL": 376,
      "ri": 377,
      "ist": 378,
      "ĠN": 379,
      "Ġy": 380,
      "ction": 381,
      "ab": 382,
      "od": 383,
      "ver": 384,
      "ec": 385,
      "est": 386,
      "os": 387,
      "ĊĠĠĠ": 388,
      "igh": 389,
      "ain": 390,
      "00": 391,
      "Ġor": 392,
      "pp": 393,
      "ĠG": 394,
      "ine": 395,
      "Ġ19": 396,
      "Ġex": 397,
      "ity": 398,
      "Ġat": 399,
      "res": 400,
      "Ġit": 401,
      "ĠIn": 402,
      "rom": 403,
      "Ġhe": 404,
      "Ġcom": 405,
      "Ġare": 406,
      "ment": 407,
      "ck": 408,
      "ess": 409,
      "ve": 410,
      "ore": 411,
      "ber": 412,
      "end": 413,
      "'s": 414,
      "Ġus": 415,
      "ĠO": 416,
      "Ġr": 417,
      "Âł": 418,
      "oun": 419,
      "ak": 420,
      "ple": 421,
      "Ġfrom": 422,
      "ĠJ": 423,
      "ill": 424,
      "pt": 425,
      "our": 426,
      "ud": 427,
      "pl": 428,
      "art": 429,
      "Ġ3": 430,
      "Ġde": 431,
      "ies": 432,
      "Ġ\\": 433,
      "all": 434,
      "Ġwe": 435,
      "Ġ$": 436,
      "ich": 437,
      "ub": 438,
      "ue": 439,
      "ive": 440,
      "ight": 441,
      "ĠU": 442,
      "per": 443,
      "ew": 444,
      "Ġle": 445,
      "ort": 446,
      "ĊĠĠĠĠĠĠĠ": 447,
      "ant": 448,
      "ated": 449,
      "Ġse": 450,
      "ere": 451,
      "ame": 452,
      "oc": 453,
      "te": 454,
      "op": 455,
      "ld": 456,
      "ag": 457,
      "ĊĠĠĠĠĠĠĠĠ": 458,
      "ure": 459,
      "int": 460,
      "up": 461,
      "Ġ+": 462,
      "ard": 463,
      "Ġun": 464,
      "ther": 465,
      "ust": 466,
      "are": 467,
      "ial": 468,
      "Ġ20": 469,
      "ans": 470,
      "ult": 471,
      "ac": 472,
      "Ġch": 473,
      "ition": 474,
      "Ġwhe": 475,
      "Ġwhich": 476,
      "Ġhis": 477,
      "Ġ-": 478,
      "Ġnum": 479,
      "age": 480,
      "ĠK": 481,
      "low": 482,
      "Ġ{": 483,
      "ip": 484,
      "Ġpl": 485,
      "ect": 486,
      "ia": 487,
      "Ġif": 488,
      "ase": 489,
      "so": 490,
      "Ġthis": 491,
      "Ġ4": 492,
      "ry": 493,
      "ear": 494,
      "og": 495,
      "Ġsh": 496,
      "ug": 497,
      "ary": 498,
      "##": 499,
      "ong": 500,
      "orm": 501,
      "ide": 502,
      "``": 503,
      "ord": 504,
      "fer": 505,
      "Ġcont": 506,
      "Ġha": 507,
      "ents": 508,
      "ach": 509,
      "Ġnot": 510,
      "Ġsp": 511,
      "vel": 512,
      "ign": 513,
      "ĠSt": 514,
      "Ġk": 515,
      "erm": 516,
      "ire": 517,
      "ang": 518,
      "der": 519,
      "ast": 520,
      "Ġ5": 521,
      "du": 522,
      "ble": 523,
      "ost": 524,
      "ian": 525,
      "cl": 526,
      "wo": 527,
      "ical": 528,
      "ell": 529,
      "Ġwere": 530,
      "--": 531,
      "rit": 532,
      "Ġ201": 533,
      "Ġcan": 534,
      "ations": 535,
      "ome": 536,
      "âĢĵ": 537,
      "ap": 538,
      "iz": 539,
      "Ġres": 540,
      "Ġsu": 541,
      "unction": 542,
      "Ġhas": 543,
      "irst": 544,
      "out": 545,
      "Ġsc": 546,
      "urn": 547,
      "ind": 548,
      "ĠV": 549,
      "Ġx": 550,
      "ĠCh": 551,
      "Ġapp": 552,
      "ork": 553,
      "Ġad": 554,
      "ice": 555,
      "Ġtr": 556,
      "Ġint": 557,
      "ass": 558,
      "rac": 559,
      "ĠHe": 560,
      "ased": 561,
      "}{": 562,
      "Ġtwo": 563,
      "xt": 564,
      "Ġim": 565,
      "Ġro": 566,
      "Ġone": 567,
      "cc": 568,
      "av": 569,
      "form": 570,
      "ount": 571,
      "),": 572,
      "\",": 573,
      "Ġfirst": 574,
      "eg": 575,
      "Ġhave": 576,
      "ime": 577,
      "The": 578,
      "Ġtheir": 579,
      "Ġalso": 580,
      "ous": 581,
      "Ġ0": 582,
      "act": 583,
      "ond": 584,
      "ok": 585,
      "Ġpr": 586,
      "Ġ6": 587,
      "Ġar": 588,
      "//": 589,
      "ĠTh": 590,
      "ov": 591,
      "Ġcl": 592,
      "Ġ200": 593,
      "ĠIt": 594,
      "Ġfunction": 595,
      "Ġnumber": 596,
      "ish": 597,
      "Ġper": 598,
      "ence": 599,
      "ions": 600,
      "ally": 601,
      "Ġout": 602,
      "Ġ}": 603,
      "able": 604,
      "ater": 605,
      "ree": 606,
      "put": 607,
      "Ġret": 608,
      "ath": 609,
      "ens": 610,
      "Ġform": 611,
      "Ġstat": 612,
      "ru": 613,
      "ail": 614,
      "Ġab": 615,
      "ft": 616,
      ").": 617,
      "own": 618,
      "ff": 619,
      "Ġequ": 620,
      "Ġyou": 621,
      "frac": 622,
      "ance": 623,
      "Ġ18": 624,
      "dition": 625,
      ");": 626,
      "Ġits": 627,
      "Ġval": 628,
      "ep": 629,
      "ace": 630,
      "ric": 631,
      "ons": 632,
      "$$": 633,
      "ould": 634,
      "Ġ`": 635,
      "fter": 636,
      "ack": 637,
      "clud": 638,
      "Ġthen": 639,
      "Ġwho": 640,
      "ari": 641,
      "Ġhad": 642,
      "Ġte": 643,
      "ile": 644,
      "Ġpart": 645,
      "Ġrec": 646,
      "ren": 647,
      "les": 648,
      "Ġj": 649,
      "ie": 650,
      "ĠAn": 651,
      "ĊĠĠĠĠĠĠĠĠĠĠĠ": 652,
      "Ġdif": 653,
      "Ġup": 654,
      "oint": 655,
      "ph": 656,
      "Ġall": 657,
      "und": 658,
      "we": 659,
      "ĠUn": 660,
      "Ġhand": 661,
      "Ġother": 662,
      "ĊĠ": 663,
      "Ġbut": 664,
      "Ġqu": 665,
      "ĠĠĠĠĠĠĠĠ": 666,
      "hed": 667,
      "Ġrel": 668,
      "Ġdis": 669,
      "Ġcomp": 670,
      "any": 671,
      "ates": 672,
      "Ġreturn": 673,
      "pe": 674,
      "ik": 675,
      "Ġdiffer": 676,
      "..": 677,
      "ors": 678,
      "Ġne": 679,
      "Ġ//": 680,
      "(\"": 681,
      "Ġinclud": 682,
      "ress": 683,
      "ugh": 684,
      "Ġ7": 685,
      "Ġser": 686,
      ".\"": 687,
      "ound": 688,
      "ample": 689,
      "cho": 690,
      "als": 691,
      "ments": 692,
      "ision": 693,
      "Ġyour": 694,
      "heck": 695,
      "__": 696,
      "Ġme": 697,
      "port": 698,
      "Ġen": 699,
      "ne": 700,
      "Ġyear": 701,
      "cul": 702,
      "ose": 703,
      "ĠY": 704,
      "Ġdec": 705,
      "ational": 706,
      "ĠAl": 707,
      "ĠPro": 708,
      "ely": 709,
      "Ġthey": 710,
      "oss": 711,
      "Ġwork": 712,
      "Ġ8": 713,
      "mer": 714,
      "In": 715,
      "oth": 716,
      "Ġeach": 717,
      "Ġbec": 718,
      "over": 719,
      "Ġ'": 720,
      "Ġwill": 721,
      "ake": 722,
      "ild": 723,
      "Ġag": 724,
      "Ċĉ": 725,
      "ene": 726,
      "ility": 727,
      "Ġtra": 728,
      "ating": 729,
      "Ġdo": 730,
      "Ġinto": 731,
      "```": 732,
      "gh": 733,
      "one": 734,
      "Ġ&": 735,
      "ĠâĢĵ": 736,
      "Ġpre": 737,
      "ory": 738,
      "Ġdifferent": 739,
      "old": 740,
      "Ġher": 741,
      "ied": 742,
      "ram": 743,
      "ark": 744,
      "ite": 745,
      "ubl": 746,
      "Ġso": 747,
      "Ġbet": 748,
      "Ġwhen": 749,
      "alcul": 750,
      "Ġ9": 751,
      "Ġstatem": 752,
      "Ġcomm": 753,
      "ollow": 754,
      "bers": 755,
      "wn": 756,
      "tern": 757,
      "ution": 758,
      "uring": 759,
      "Ġ10": 760,
      "Ġbased": 761,
      "ring": 762,
      "ode": 763,
      "Ġev": 764,
      "Ġplay": 765,
      "ood": 766,
      "Ġover": 767,
      "Ġra": 768,
      "Ġcons": 769,
      "\".": 770,
      "Ġind": 771,
      "Ġuse": 772,
      "Ġdes": 773,
      "ĠEn": 774,
      "omm": 775,
      "Ġbeen": 776,
      "ough": 777,
      "ts": 778,
      "Ġnew": 779,
      "Ġtime": 780,
      "Ġafter": 781,
      "ced": 782,
      "ween": 783,
      "Ġdef": 784,
      "rol": 785,
      "Ġmore": 786,
      "land": 787,
      "Ġ<": 788,
      "ib": 789,
      "Ġ#": 790,
      "âĢĻ": 791,
      "Ġsome": 792,
      "ys": 793,
      "Ġdet": 794,
      "ative": 795,
      "âĪ": 796,
      "Ġkn": 797,
      "ember": 798,
      "Ġthere": 799,
      "Ġexp": 800,
      "Ġel": 801,
      "Ġthan": 802,
      "orn": 803,
      "Ġsec": 804,
      "Ġtrans": 805,
      "ĠThis": 806,
      "ook": 807,
      "ays": 808,
      "Ġfollow": 809,
      "ĠDe": 810,
      "Ġbetween": 811,
      "fore": 812,
      "amp": 813,
      "ics": 814,
      "Ġ$$": 815,
      "rough": 816,
      "Ġvari": 817,
      "hip": 818,
      "ĠEx": 819,
      "cri": 820,
      "ÂłÂł": 821,
      "ash": 822,
      "iss": 823,
      "ni": 824,
      "----": 825,
      "Ġwhere": 826,
      "âĢ¢": 827,
      "Ġstud": 828,
      "cy": 829,
      "yg": 830,
      "Ġhow": 831,
      "iven": 832,
      "Ġvalue": 833,
      "Ġpoint": 834,
      "aw": 835,
      "ular": 836,
      "Ġsub": 837,
      "ĠAs": 838,
      "Ġset": 839,
      "me": 840,
      "Ġsy": 841,
      "Ġprodu": 842,
      "Ġcol": 843,
      "ces": 844,
      "Ġend": 845,
      "pr": 846,
      "lect": 847,
      "use": 848,
      "Ġunder": 849,
      "wit": 850,
      "Ġany": 851,
      "ited": 852,
      "ible": 853,
      "ĠAr": 854,
      "eth": 855,
      "chool": 856,
      "Ġreg": 857,
      "ctions": 858,
      "inal": 859,
      "Ġ199": 860,
      "ont": 861,
      "resent": 862,
      "ise": 863,
      "Ġco": 864,
      "Ġprov": 865,
      "Ġcondition": 866,
      "ade": 867,
      "its": 868,
      "Ġresult": 869,
      "ince": 870,
      "Ġgro": 871,
      "Ġline": 872,
      "ues": 873,
      "Ġthree": 874,
      "ĠIf": 875,
      "Ġsol": 876,
      "Ġoff": 877,
      "vi": 878,
      "aking": 879,
      "Ġmat": 880,
      "ata": 881,
      "right": 882,
      "Ġinter": 883,
      "Ġspec": 884,
      "hes": 885,
      "ason": 886,
      "Ġabout": 887,
      "Ġonly": 888,
      "Ġloc": 889,
      "ick": 890,
      "Ġdist": 891,
      "Ġsuch": 892,
      "}}": 893,
      "ygi": 894,
      "ĊĠĠĠĠĠ": 895,
      "{\\": 896,
      "lo": 897,
      "Ġcall": 898,
      "red": 899,
      "ward": 900,
      "ines": 901,
      "Ġshe": 902,
      "Ġuser": 903,
      "Ġused": 904,
      "ery": 905,
      "imes": 906,
      "ient": 907,
      "Ġ12": 908,
      "Ġinput": 909,
      "Ġthem": 910,
      "ract": 911,
      "ygiene": 912,
      "inn": 913,
      "ĠĠĠĠĠĠĠ": 914,
      "gan": 915,
      "Ġacc": 916,
      "Ġwould": 917,
      "Ġappro": 918,
      "witch": 919,
      "ved": 920,
      "Ġdiv": 921,
      "Ġcontrol": 922,
      "Ġno": 923,
      "Ġent": 924,
      "Ġthrough": 925,
      "Ġass": 926,
      "ific": 927,
      "io": 928,
      "Ġwell": 929,
      "Ġrem": 930,
      "ings": 931,
      "Ġact": 932,
      "ĠQ": 933,
      "Ġgra": 934,
      "Ġatt": 935,
      "ĠOn": 936,
      "ert": 937,
      "ities": 938,
      "ject": 939,
      "10": 940,
      "Ġinv": 941,
      "Ġinc": 942,
      "ener": 943,
      "hen": 944,
      "Ġrep": 945,
      "\")": 946,
      "ivers": 947,
      "Ġtri": 948,
      "else": 949,
      "ax": 950,
      "stem": 951,
      "ublic": 952,
      "Ġpol": 953,
      "air": 954,
      "Ġlevel": 955,
      "ĠSe": 956,
      "ran": 957,
      "ily": 958,
      "ike": 959,
      "Ġfind": 960,
      "eng": 961,
      "Ġelse": 962,
      "ĠMar": 963,
      "ex": 964,
      "Ġboth": 965,
      "blem": 966,
      "plement": 967,
      "Ġflow": 968,
      "Ġagain": 969,
      "ual": 970,
      "ty": 971,
      "19": 972,
      "Ġget": 973,
      "outh": 974,
      "Ġhigh": 975,
      "ability": 976,
      "Ġwrit": 977,
      "Ġsim": 978,
      "20": 979,
      "Ġstatements": 980,
      "Ġgiven": 981,
      "Ġsecond": 982,
      "Ġyears": 983,
      "Ġswitch": 984,
      "Ġbu": 985,
      "ĠNew": 986,
      "ident": 987,
      "ĊĊĠĠĠ": 988,
      "ral": 989,
      "lean": 990,
      "oy": 991,
      "erson": 992,
      "ten": 993,
      "^{": 994,
      "Ġcheck": 995,
      "ict": 996,
      "text": 997,
      "Ġcalcul": 998,
      "ĠCon": 999,
      "Ġear": 1000,
      "ĠLe": 1001,
      "Ġcent": 1002,
      "Ġfe": 1003,
      "Ġ|": 1004,
      "ĠHere": 1005,
      "reme": 1006,
      "Ġ[": 1007,
      "Ġexpl": 1008,
      "ĠWh": 1009,
      "Ġcur": 1010,
      "Ġconst": 1011,
      "aining": 1012,
      "()": 1013,
      "Ġsame": 1014,
      "Ġmod": 1015,
      "Ġmin": 1016,
      "case": 1017,
      "Ġmain": 1018,
      "ĠSh": 1019,
      "Ġnumbers": 1020,
      "ob": 1021,
      "Ġmult": 1022,
      "Ġduring": 1023,
      "ove": 1024,
      "meric": 1025,
      "left": 1026,
      "Ġob": 1027,
      "Ġthese": 1028,
      "ix": 1029,
      "cept": 1030,
      "ilm": 1031,
      "ey": 1032,
      "eo": 1033,
      "Ġam": 1034,
      "fess": 1035,
      "ider": 1036,
      "de": 1037,
      "Ġ198": 1038,
      "Ġmost": 1039,
      "Ġwhether": 1040,
      "oh": 1041,
      "orld": 1042,
      "}\\": 1043,
      "ĠWe": 1044,
      "reat": 1045,
      "Ġarea": 1046,
      "ĠEng": 1047,
      "000": 1048,
      "Ġfound": 1049,
      "Ġfact": 1050,
      "ished": 1051,
      "ann": 1052,
      "play": 1053,
      "Ġhim": 1054,
      "Ġext": 1055,
      "Ġ15": 1056,
      "oot": 1057,
      "Ġhandle": 1058,
      "Ġterm": 1059,
      "ĠFor": 1060,
      "orth": 1061,
      "ined": 1062,
      "Ġmany": 1063,
      "Ġneed": 1064,
      "iel": 1065,
      "Ġ.": 1066,
      "Ġ:": 1067,
      "ER": 1068,
      "ather": 1069,
      "Ġcode": 1070,
      "Ġprog": 1071,
      "}$": 1072,
      "the": 1073,
      "ermine": 1074,
      "ator": 1075,
      "Ġadd": 1076,
      "ower": 1077,
      "Ġprint": 1078,
      "ired": 1079,
      "ah": 1080,
      "Ġposs": 1081,
      "ĠĊĠĠĠ": 1082,
      "ĠTr": 1083,
      "ppet": 1084,
      "ange": 1085,
      "irc": 1086,
      "Ġmay": 1087,
      "ton": 1088,
      "ature": 1089,
      "ins": 1090,
      "aren": 1091,
      "other": 1092,
      "ases": 1093,
      "ĠAmeric": 1094,
      "Ġinst": 1095,
      "Ġresp": 1096,
      "ale": 1097,
      "rent": 1098,
      "###": 1099,
      "nippet": 1100,
      "Ġmade": 1101,
      "Ġperform": 1102,
      "velop": 1103,
      "Ġrequ": 1104,
      "Ġsnippet": 1105,
      "arg": 1106,
      "Ġfl": 1107,
      "ures": 1108,
      "ause": 1109,
      "ever": 1110,
      "olog": 1111,
      "ute": 1112,
      "Ġfollowing": 1113,
      "Ġcount": 1114,
      "ouse": 1115,
      "ank": 1116,
      "Ġcalled": 1117,
      "Ġteam": 1118,
      "Ġusing": 1119,
      "Ġmed": 1120,
      "Ġfour": 1121,
      "estion": 1122,
      "ĠâĢ": 1123,
      "Ġcase": 1124,
      "Ġfam": 1125,
      "Ġac": 1126,
      "Ġequation": 1127,
      "Ġname": 1128,
      "Ġgo": 1129,
      "ides": 1130,
      "Ġcre": 1131,
      "ving": 1132,
      "way": 1133,
      "cript": 1134,
      "ĠHow": 1135,
      "Ġpar": 1136,
      "align": 1137,
      "Ġ197": 1138,
      "Ġbo": 1139,
      "tal": 1140,
      "Ġman": 1141,
      "ier": 1142,
      "Ġpop": 1143,
      "12": 1144,
      "Ġbefore": 1145,
      "Ġrele": 1146,
      "Ġdep": 1147,
      "Ġ16": 1148,
      "line": 1149,
      "ock": 1150,
      "oci": 1151,
      "Ġrun": 1152,
      "Ġty": 1153,
      "Ġwhile": 1154,
      "ĠCl": 1155,
      "af": 1156,
      "ll": 1157,
      "Ġshow": 1158,
      "ted": 1159,
      "ames": 1160,
      "AT": 1161,
      "por": 1162,
      "Ġfilm": 1163,
      "val": 1164,
      "sw": 1165,
      "ting": 1166,
      "ĠRe": 1167,
      "Ġcomple": 1168,
      "Ġimplement": 1169,
      "ĊĠĠĠĠĠĠĠĠĠĠĠĠĠĠĠ": 1170,
      "iversity": 1171,
      "Ġstart": 1172,
      "Ġproblem": 1173,
      "Ġdire": 1174,
      "ided": 1175,
      "Ġprogram": 1176,
      "ss": 1177,
      "Ġknown": 1178,
      "ĠSc": 1179,
      "Ġang": 1180,
      "fession": 1181,
      "ĊĠĠĠĠĊĠĠĠ": 1182,
      "Ġrecord": 1183,
      "angle": 1184,
      "uc": 1185,
      "Ġ>": 1186,
      "Ġbeing": 1187,
      "cess": 1188,
      "Ġ17": 1189,
      "ĠShe": 1190,
      "Ġcomments": 1191,
      "ĠCol": 1192,
      "ruct": 1193,
      "led": 1194,
      "to": 1195,
      "round": 1196,
      "eople": 1197,
      "ety": 1198,
      "Ġsqu": 1199,
      "Ġlater": 1200,
      "ement": 1201,
      "Ġscore": 1202,
      "Ġsign": 1203,
      "Ġ==": 1204,
      "sh": 1205,
      "aj": 1206,
      "Ġele": 1207,
      "ĠZ": 1208,
      "Ġsur": 1209,
      "ield": 1210,
      "ek": 1211,
      "Ġbel": 1212,
      "ĠâĪ": 1213,
      "Ġed": 1214,
      "sole": 1215,
      "ived": 1216,
      "Ġ*": 1217,
      "alth": 1218,
      "ln": 1219,
      "Ġschool": 1220,
      "Th": 1221,
      "overn": 1222,
      "Ġsm": 1223,
      "Ġoper": 1224,
      "Ġgroup": 1225,
      "Ġ196": 1226,
      "az": 1227,
      "ĠInd": 1228,
      "Ġpossible": 1229,
      "man": 1230,
      "ists": 1231,
      "Ġsupp": 1232,
      "row": 1233,
      "Ġage": 1234,
      "ĠAd": 1235,
      "Ġorig": 1236,
      "ĠSp": 1237,
      "uch": 1238,
      "ÃĹ": 1239,
      "____": 1240,
      "ives": 1241,
      "Ex": 1242,
      "mat": 1243,
      "essage": 1244,
      "olution": 1245,
      "Ġpos": 1246,
      "Ġlike": 1247,
      "Ġincluding": 1248,
      "run": 1249,
      "ĊĊ": 1250,
      "ula": 1251,
      "cent": 1252,
      "ball": 1253,
      "Ġgener": 1254,
      "Ġwhat": 1255,
      "til": 1256,
      "sp": 1257,
      "Ġ$\\": 1258,
      "com": 1259,
      "ize": 1260,
      "Ġtotal": 1261,
      "Ġcor": 1262,
      "Ġhel": 1263,
      "Ġseason": 1264,
      "Ġright": 1265,
      "Ġmov": 1266,
      "ality": 1267,
      "ĠUnited": 1268,
      "ethod": 1269,
      "ices": 1270,
      "Ġsystem": 1271,
      "Ġmon": 1272,
      "Ġbecame": 1273,
      "Ġ11": 1274,
      "arn": 1275,
      "ful": 1276,
      "rib": 1277,
      "ared": 1278,
      "ĠAt": 1279,
      "pro": 1280,
      "elf": 1281,
      "Ġlog": 1282,
      "ife": 1283,
      "ury": 1284,
      "ars": 1285,
      "ling": 1286,
      "ĠUniversity": 1287,
      "Ġexample": 1288,
      "tr": 1289,
      "Ġpeople": 1290,
      "inally": 1291,
      "Ġsing": 1292,
      "tle": 1293,
      "pen": 1294,
      "Ġem": 1295,
      "Ġlet": 1296,
      "Ġcurrent": 1297,
      "iver": 1298,
      "ĠPr": 1299,
      "Ġph": 1300,
      "Ġart": 1301,
      "Ġpat": 1302,
      "Ġrepresent": 1303,
      "alys": 1304,
      "iam": 1305,
      "Ġfra": 1306,
      "beg": 1307,
      "Ġlow": 1308,
      "ern": 1309,
      "ength": 1310,
      "rite": 1311,
      "ized": 1312,
      "Ġest": 1313,
      "Ġagainst": 1314,
      "Ġuntil": 1315,
      "son": 1316,
      "Ġpublic": 1317,
      "ven": 1318,
      "con": 1319,
      "ink": 1320,
      "formation": 1321,
      "Ġlong": 1322,
      "rict": 1323,
      "Ġpass": 1324,
      "ument": 1325,
      "alysis": 1326,
      "Ġsever": 1327,
      "Ġ14": 1328,
      "Ġcare": 1329,
      "ober": 1330,
      "ask": 1331,
      "Ġlead": 1332,
      "ants": 1333,
      "Ġorder": 1334,
      "Ġ13": 1335,
      "ify": 1336,
      "ave": 1337,
      "ĠCom": 1338,
      "ray": 1339,
      "_{": 1340,
      "Ġsum": 1341,
      "18": 1342,
      "Ġmulti": 1343,
      "}$$": 1344,
      "ĠAmerican": 1345,
      "eter": 1346,
      "ually": 1347,
      "ets": 1348,
      "ains": 1349,
      "50": 1350,
      "Ġ194": 1351,
      "Ġexper": 1352,
      "date": 1353,
      "bum": 1354,
      "ohn": 1355,
      "Ġconditions": 1356,
      "Ġcontin": 1357,
      "ĠAfter": 1358,
      "Ġown": 1359,
      "ĠHigh": 1360,
      "Ġz": 1361,
      "erv": 1362,
      "Ġprom": 1363,
      "begin": 1364,
      "Ġhygiene": 1365,
      "ĠThere": 1366,
      "ural": 1367,
      "akes": 1368,
      "Ġmessage": 1369,
      "Ġ,": 1370,
      "ull": 1371,
      "ained": 1372,
      "*}": 1373,
      "yn": 1374,
      "ommend": 1375,
      "Ġproper": 1376,
      "Ġhelp": 1377,
      "vent": 1378,
      "sq": 1379,
      "teg": 1380,
      "ulation": 1381,
      "ium": 1382,
      "Ġ<<": 1383,
      "Ġclass": 1384,
      "Ġside": 1385,
      "Ġdisc": 1386,
      "ĠJul": 1387,
      "Ġdata": 1388,
      "usic": 1389,
      "ĠQu": 1390,
      "ctor": 1391,
      "Ġseries": 1392,
      "St": 1393,
      "get": 1394,
      "uss": 1395,
      "ird": 1396,
      "Ġvalues": 1397,
      "xtreme": 1398,
      "ineer": 1399,
      "Ġour": 1400,
      "Ġbl": 1401,
      "Ġperson": 1402,
      "ĠIs": 1403,
      "Ġback": 1404,
      "urch": 1405,
      "arri": 1406,
      "Ġcould": 1407,
      "Ġever": 1408,
      "ĠComm": 1409,
      "Ġinclude": 1410,
      "Ġaddition": 1411,
      "swer": 1412,
      "Ġequal": 1413,
      "ule": 1414,
      "yle": 1415,
      "ina": 1416,
      "ron": 1417,
      "med": 1418,
      "aid": 1419,
      "que": 1420,
      "ism": 1421,
      "Ġdevelop": 1422,
      "side": 1423,
      "Ġsample": 1424,
      "omet": 1425,
      "ency": 1426,
      "Ġserv": 1427,
      "une": 1428,
      "Ġprocess": 1429,
      "Ġbre": 1430,
      "Ġsl": 1431,
      "ending": 1432,
      "omin": 1433,
      "Ġproduct": 1434,
      "Ġdetermine": 1435,
      "Ġalbum": 1436,
      "Ġmake": 1437,
      "ĠÂł": 1438,
      "enn": 1439,
      "Ġ/": 1440,
      "Ġsmall": 1441,
      "Ġalong": 1442,
      "ified": 1443,
      "Ġsince": 1444,
      "ĊĠĠĠĠĠĠĠĠĠĠĠĠĠĠĠĠ": 1445,
      "iness": 1446,
      "orpor": 1447,
      "Ġtrue": 1448,
      "ley": 1449,
      "Ġ30": 1450,
      "Ġcases": 1451,
      "RE": 1452,
      "Ġplace": 1453,
      "Ġexpress": 1454,
      "ĠCheck": 1455,
      "Ġchar": 1456,
      "ane": 1457,
      "Ġ100": 1458,
      "ccess": 1459,
      "ross": 1460,
      "ior": 1461,
      "els": 1462,
      "Ġdecision": 1463,
      "Ġ$$\\": 1464,
      "Ġleft": 1465,
      "amed": 1466,
      "ret": 1467,
      "log": 1468,
      "Ġfamily": 1469,
      "Ġjust": 1470,
      "ĠMay": 1471,
      "Ġstudents": 1472,
      "15": 1473,
      "ĠSy": 1474,
      "25": 1475,
      "Ġinf": 1476,
      "ĠDry": 1477,
      "Ġrece": 1478,
      "Ġbro": 1479,
      "ness": 1480,
      "eb": 1481,
      "ically": 1482,
      "rt": 1483,
      "Ġbecause": 1484,
      "Ġfin": 1485,
      "Ġbuild": 1486,
      "Ġi": 1487,
      "Ġ25": 1488,
      "Ġstatement": 1489,
      "Ġlist": 1490,
      "paren": 1491,
      "IN": 1492,
      "Ġknow": 1493,
      "--------": 1494,
      "ĠCount": 1495,
      "Ġmethod": 1496,
      "Ġpoints": 1497,
      "Ġeng": 1498,
      "Ġpartic": 1499,
      "ĠJohn": 1500,
      "ages": 1501,
      "Ġconsider": 1502,
      "anc": 1503,
      "ague": 1504,
      "Ġmem": 1505,
      "by": 1506,
      "Ġdesign": 1507,
      "inc": 1508,
      "err": 1509,
      "Ġwithin": 1510,
      "sc": 1511,
      "Ġindic": 1512,
      "Ġexplaining": 1513,
      "isplay": 1514,
      "Ġocc": 1515,
      "ĠStates": 1516,
      "17": 1517,
      "Ġav": 1518,
      "ÂłÂłÂłÂł": 1519,
      "ĠPl": 1520,
      "osed": 1521,
      "crib": 1522,
      "Ġseveral": 1523,
      "uth": 1524,
      "ote": 1525,
      "16": 1526,
      "rand": 1527,
      "Ġformula": 1528,
      "Ġanother": 1529,
      "Ġ```": 1530,
      "Ġgraph": 1531,
      "Ġdid": 1532,
      "...": 1533,
      "Ġpriv": 1534,
      "Ġplayed": 1535,
      "Ġmet": 1536,
      "Ġchild": 1537,
      "ially": 1538,
      "itive": 1539,
      "Ġwater": 1540,
      "An": 1541,
      "Ġhist": 1542,
      "Ġrelated": 1543,
      "Ġwon": 1544,
      "Ġgovern": 1545,
      "anu": 1546,
      "Ġenter": 1547,
      "Ġdown": 1548,
      "Ġcommon": 1549,
      "Ġnow": 1550,
      "Ġeff": 1551,
      "iability": 1552,
      "acy": 1553,
      "ization": 1554,
      "ĠWorld": 1555,
      "ording": 1556,
      "::": 1557,
      "view": 1558,
      "ately": 1559,
      "read": 1560,
      "Ġgu": 1561,
      "alse": 1562,
      "ival": 1563,
      "We": 1564,
      "rat": 1565,
      "uro": 1566,
      "Ġreleased": 1567,
      "Ġcity": 1568,
      "arm": 1569,
      "Ġopen": 1570,
      "name": 1571,
      "Ġlength": 1572,
      "Ġtem": 1573,
      "ĠTo": 1574,
      "ĠÃĹ": 1575,
      "Ġca": 1576,
      "Ġtop": 1577,
      "Ġrecommend": 1578,
      "Ġstep": 1579,
      "Ġ)": 1580,
      "ĠSchool": 1581,
      "lected": 1582,
      "Ġsong": 1583,
      "ta": 1584,
      "Ġday": 1585,
      "Ġless": 1586,
      "ured": 1587,
      "Ġsquare": 1588,
      "11": 1589,
      "Ġinteg": 1590,
      "requ": 1591,
      "Ġstate": 1592,
      "Ġtimes": 1593,
      "par": 1594,
      "Ġdoes": 1595,
      "Ġann": 1596,
      "Ġlast": 1597,
      "ĠNational": 1598,
      "rid": 1599,
      "ples": 1600,
      "ission": 1601,
      "verage": 1602,
      "Ġfinal": 1603,
      "Ġorgan": 1604,
      "âĢĿ": 1605,
      "ister": 1606,
      "Ġstand": 1607,
      "Ġimplementation": 1608,
      "sqrt": 1609,
      "iving": 1610,
      "ables": 1611,
      "$\\": 1612,
      "Ġ24": 1613,
      "ĠThey": 1614,
      "Ġtake": 1615,
      "parency": 1616,
      "ĠPh": 1617,
      "Ġclean": 1618,
      "ke": 1619,
      "ĠAust": 1620,
      "Ġ193": 1621,
      "Ġinformation": 1622,
      "pri": 1623,
      "lear": 1624,
      "arch": 1625,
      "Ġgame": 1626,
      "ĠOr": 1627,
      "Ġdra": 1628,
      "Ġabove": 1629,
      "Ġpopulation": 1630,
      "Write": 1631,
      "Ġ195": 1632,
      "stit": 1633,
      "ĠX": 1634,
      "Ġbook": 1635,
      "Ġincre": 1636,
      "ised": 1637,
      "Ġcirc": 1638,
      "Ġgre": 1639,
      "oid": 1640,
      "of": 1641,
      "ĠTe": 1642,
      "ively": 1643,
      "))": 1644,
      "',": 1645,
      "ĠInc": 1646,
      "Ġbeh": 1647,
      "ital": 1648,
      "ajor": 1649,
      "ĠGerm": 1650,
      "Â°": 1651,
      "=\\": 1652,
      "Ġhead": 1653,
      "raph": 1654,
      "Ġfoot": 1655,
      "Ġrad": 1656,
      "Ġsym": 1657,
      "ĠĊ": 1658,
      "ĠCan": 1659,
      "ĠBrit": 1660,
      "ĠDef": 1661,
      "Ġevery": 1662,
      "LE": 1663,
      "Ġdr": 1664,
      "ugust": 1665,
      "Ġstring": 1666,
      "min": 1667,
      "vers": 1668,
      "Ġallow": 1669,
      "Ġway": 1670,
      "ĠTrans": 1671,
      "my": 1672,
      "Ġsupport": 1673,
      "Ġimport": 1674,
      "Ġwritten": 1675,
      "ication": 1676,
      "arge": 1677,
      "ales": 1678,
      "ining": 1679,
      "ps": 1680,
      "lish": 1681,
      "ĠAll": 1682,
      "Ġcalculate": 1683,
      "esp": 1684,
      "ush": 1685,
      "ĠNov": 1686,
      "Ġearly": 1687,
      "14": 1688,
      "ope": 1689,
      "):": 1690,
      "ience": 1691,
      "Ġhome": 1692,
      "ected": 1693,
      "Ġmeas": 1694,
      "Ġmark": 1695,
      "rix": 1696,
      "ptember": 1697,
      "ĠHowever": 1698,
      "utions": 1699,
      "anuary": 1700,
      "Ġsuccess": 1701,
      "Ġden": 1702,
      "Ġvarious": 1703,
      "Ġhouse": 1704,
      "Ġtown": 1705,
      "Ġanswer": 1706,
      "ĠMarch": 1707,
      "ai": 1708,
      "day": 1709,
      "ently": 1710,
      "ĠAugust": 1711,
      "Ġstr": 1712,
      "ĠHis": 1713,
      "}^{": 1714,
      "Ġread": 1715,
      "Ġtech": 1716,
      "isk": 1717,
      "Ġmusic": 1718,
      "Ġdi": 1719,
      "ĠSouth": 1720,
      "ilt": 1721,
      "Ġnear": 1722,
      "let": 1723,
      "ĠBe": 1724,
      "Ġthose": 1725,
      "ĠOct": 1726,
      "lege": 1727,
      "ology": 1728,
      "ero": 1729,
      "ĠCons": 1730,
      "ards": 1731,
      "13": 1732,
      "ON": 1733,
      "ĠAss": 1734,
      "ued": 1735,
      "Ġappear": 1736,
      "ĠâĢľ": 1737,
      "Ġpresent": 1738,
      "Ġeven": 1739,
      "This": 1740,
      "ript": 1741,
      "ze": 1742,
      "ĠJune": 1743,
      "ĠCent": 1744,
      "ĠSeptember": 1745,
      "ĠCalcul": 1746,
      "Ġsee": 1747,
      "Ġcour": 1748,
      "Ġscript": 1749,
      "ĠJanuary": 1750,
      "Ġevent": 1751,
      "Ġaround": 1752,
      "Ġpres": 1753,
      "ĠYork": 1754,
      "Ġrest": 1755,
      "ots": 1756,
      "ffic": 1757,
      "ilar": 1758,
      "au": 1759,
      "Ġvis": 1760,
      "math": 1761,
      "omen": 1762,
      "Ġtriangle": 1763,
      "Ġsingle": 1764,
      "ĠWar": 1765,
      "Ġold": 1766,
      "pril": 1767,
      "erg": 1768,
      "Ġconf": 1769,
      "Ġland": 1770,
      "Ġpower": 1771,
      "ĠWhat": 1772,
      "vious": 1773,
      "Ġsides": 1774,
      "Ġbegan": 1775,
      "Ġdirect": 1776,
      "Ġtype": 1777,
      "ĠGe": 1778,
      "Ġoffic": 1779,
      "Ġdescrib": 1780,
      "ibility": 1781,
      "rist": 1782,
      "ĠOctober": 1783,
      "bo": 1784,
      "Ġfive": 1785,
      "Ġappropri": 1786,
      "ead": 1787,
      "mber": 1788,
      "iply": 1789,
      "ternational": 1790,
      "\";": 1791,
      "Ġlook": 1792,
      "ĠBl": 1793,
      "ĠJuly": 1794,
      "Ġstruct": 1795,
      "Ġprob": 1796,
      "hest": 1797,
      "ental": 1798,
      "ĠDec": 1799,
      "ailed": 1800,
      "ĠPar": 1801,
      "ional": 1802,
      "Ġaverage": 1803,
      "Ġformer": 1804,
      "ither": 1805,
      "ampions": 1806,
      "'t": 1807,
      "ĠCar": 1808,
      "Ġlocated": 1809,
      "Ġadv": 1810,
      "isc": 1811,
      "ĠApril": 1812,
      "duct": 1813,
      "ĠPol": 1814,
      "Ġvi": 1815,
      "Ġcommun": 1816,
      "Ġcrit": 1817,
      "Ġopp": 1818,
      "Ġlocal": 1819,
      "ĠAnd": 1820,
      "aces": 1821,
      "Ġvery": 1822,
      "En": 1823,
      "ocial": 1824,
      "ination": 1825,
      "print": 1826,
      "Ġsk": 1827,
      "Ġref": 1828,
      "ym": 1829,
      "ii": 1830,
      "Ġnamed": 1831,
      "Ġcar": 1832,
      "Ġtit": 1833,
      "wards": 1834,
      "ĠDet": 1835,
      "Ġhealth": 1836,
      "Ġbeg": 1837,
      "ĠCounty": 1838,
      "Ġappropriate": 1839,
      "ious": 1840,
      "ĠĊĠĠĠĠĠĠĠ": 1841,
      "Ġnext": 1842,
      "Ġprovide": 1843,
      "ouble": 1844,
      "ended": 1845,
      "imal": 1846,
      "cember": 1847,
      "Ġpubl": 1848,
      "ĠEuro": 1849,
      "Ġpost": 1850,
      "Ġlarg": 1851,
      "yl": 1852,
      "Ġdry": 1853,
      "ĠUse": 1854,
      "yth": 1855,
      "ĠSte": 1856,
      "ĠSo": 1857,
      "Ġdue": 1858,
      "aced": 1859,
      "Ġ&&": 1860,
      "Ġpract": 1861,
      "yp": 1862,
      "resp": 1863,
      "Ġneg": 1864,
      "afety": 1865,
      "Ġmatch": 1866,
      "oman": 1867,
      "ĠNovember": 1868,
      "NT": 1869,
      "ences": 1870,
      "hemat": 1871,
      "Ġlogic": 1872,
      "ÏĢ": 1873,
      "Ġtook": 1874,
      "Ġjo": 1875,
      "ugg": 1876,
      "Ġmonth": 1877,
      "ĠCo": 1878,
      "Ġmust": 1879,
      "Ġangle": 1880,
      "Ġthird": 1881,
      "Ġrelations": 1882,
      "Ġoriginal": 1883,
      "ES": 1884,
      "Ġ\\\\": 1885,
      "Ġbreak": 1886,
      "Ġshould": 1887,
      "Ġdeg": 1888,
      "Ġcompet": 1889,
      "Ġmil": 1890,
      "Ġterms": 1891,
      "ches": 1892,
      "ateg": 1893,
      "Ġvill": 1894,
      "ĠDecember": 1895,
      "Le": 1896,
      "ĠIm": 1897,
      "imum": 1898,
      "erc": 1899,
      "ems": 1900,
      "ume": 1901,
      "Ġsix": 1902,
      "Ġcompany": 1903,
      "Ġwithout": 1904,
      "Ġreal": 1905,
      "app": 1906,
      "ĠNorth": 1907,
      "Ġvariable": 1908,
      "Ġfactor": 1909,
      "Ġheld": 1910,
      "Ġmajor": 1911,
      "ords": 1912,
      "Ġband": 1913,
      "iod": 1914,
      "Ġnon": 1915,
      "hold": 1916,
      "ipp": 1917,
      "Ġworld": 1918,
      "Ġbelow": 1919,
      "Ġinvol": 1920,
      "inners": 1921,
      "ott": 1922,
      "Ġ(\"": 1923,
      "Ġgovernment": 1924,
      "ĠÂłĠÂł": 1925,
      "Ġcharact": 1926,
      "alf": 1927,
      "Ġput": 1928,
      "Ġeas": 1929,
      "Ġproblems": 1930,
      "\");": 1931,
      "Ġtest": 1932,
      "Ġstill": 1933,
      "oms": 1934,
      "ody": 1935,
      "âĢĶ": 1936,
      "Ġrefer": 1937,
      "hat": 1938,
      ".,": 1939,
      "Ġprofession": 1940,
      "Ġmuch": 1941,
      "Ġpo": 1942,
      "Ġvers": 1943,
      "ivid": 1944,
      "illion": 1945,
      "ĠDist": 1946,
      "Ġspe": 1947,
      "Solution": 1948,
      "ĠGu": 1949,
      "Ġcm": 1950,
      "stand": 1951,
      "orporate": 1952,
      "ves": 1953,
      "Ġestab": 1954,
      "Ġreport": 1955,
      "Ġuses": 1956,
      "Ġ2010": 1957,
      "Pr": 1958,
      "Ġmembers": 1959,
      "SE": 1960,
      "Ġdig": 1961,
      "Ġmember": 1962,
      "ĠII": 1963,
      "Ġreceived": 1964,
      "Ġlarge": 1965,
      "ius": 1966,
      "ption": 1967,
      "ĠCity": 1968,
      "ebru": 1969,
      "ebruary": 1970,
      "Ġstation": 1971,
      "ĠFl": 1972,
      "ashing": 1973,
      "ris": 1974,
      "Ġchang": 1975,
      "ĠSol": 1976,
      "ĠAustral": 1977,
      "Ġlaw": 1978,
      "Pro": 1979,
      "mt": 1980,
      "ĠFind": 1981,
      "Ġclub": 1982,
      "ĠWhen": 1983,
      "Ġpolit": 1984,
      "Ġident": 1985,
      "Ġtrust": 1986,
      "ential": 1987,
      "30": 1988,
      "Ġhig": 1989,
      "ĠState": 1990,
      "Ġlo": 1991,
      "Ġcap": 1992,
      "Ġmid": 1993,
      "Ġbus": 1994,
      "bra": 1995,
      "Ġdem": 1996,
      "BC": 1997,
      "Ġweek": 1998,
      "umber": 1999,
      "Ġbest": 2000,
      "omial": 2001,
      "Ġlim": 2002,
      "Ġsaid": 2003,
      "Ġens": 2004,
      "ĠBritish": 2005,
      "ype": 2006,
      "ĠEurope": 2007,
      "alk": 2008,
      "Qu": 2009,
      "utes": 2010,
      "Ġleg": 2011,
      "Line": 2012,
      "ails": 2013,
      "Ġ50": 2014,
      "ae": 2015,
      "Ġclear": 2016,
      "Ġserved": 2017,
      "ĠLow": 2018,
      "Ġiss": 2019,
      "Ġmean": 2020,
      "ampionship": 2021,
      "ĠFebruary": 2022,
      "Ġrange": 2023,
      "Ġfalse": 2024,
      "urther": 2025,
      "ĠEngineer": 2026,
      "ser": 2027,
      "Ġbas": 2028,
      "ians": 2029,
      "Ġcomb": 2030,
      "ĠUS": 2031,
      "Ġprevious": 2032,
      "ĠRep": 2033,
      "ĠIncorporate": 2034,
      "Ġtyp": 2035,
      "ias": 2036,
      "Ġincluded": 2037,
      "CT": 2038,
      "ats": 2039,
      "Ġfield": 2040,
      "Ġlit": 2041,
      "ocument": 2042,
      "ĠEl": 2043,
      "To": 2044,
      "equ": 2045,
      "perature": 2046,
      "aster": 2047,
      "Ġarg": 2048,
      "ours": 2049,
      "Ġbuilt": 2050,
      "ĠWill": 2051,
      "Ġposition": 2052,
      "display": 2053,
      "Ġrepl": 2054,
      "Ġmaking": 2055,
      "though": 2056,
      "Ġoften": 2057,
      "Ġbase": 2058,
      "Ġshort": 2059,
      "ĠâĪĴ": 2060,
      "Ġdat": 2061,
      "60": 2062,
      "ration": 2063,
      "Ġwant": 2064,
      "Ġobject": 2065,
      "Ġinterest": 2066,
      "Ġstd": 2067,
      "Ġperiod": 2068,
      "Ġ2011": 2069,
      "Ġborn": 2070,
      "ĠReg": 2071,
      "Ġappl": 2072,
      "Ġgeneral": 2073,
      "For": 2074,
      "style": 2075,
      "times": 2076,
      "Ġdays": 2077,
      "Ġ=>": 2078,
      "It": 2079,
      "augh": 2080,
      "Ġtable": 2081,
      "aly": 2082,
      "Ġhum": 2083,
      "ĠBro": 2084,
      "Ġexam": 2085,
      "24": 2086,
      "ĠDefine": 2087,
      "ĊĠĠĠĠĊĠĠĠĠĠĠĠ": 2088,
      "Ġaction": 2089,
      "urs": 2090,
      "Ġapproach": 2091,
      "Ġchildren": 2092,
      "Ġsolution": 2093,
      "ault": 2094,
      "oung": 2095,
      "ways": 2096,
      "arried": 2097,
      "ĠMan": 2098,
      "ĠBeg": 2099,
      "ĠAm": 2100,
      "rm": 2101,
      "ĠPer": 2102,
      "Ġair": 2103,
      "ava": 2104,
      "Ġfraction": 2105,
      "Ġsolve": 2106,
      "âĪĴ": 2107,
      ")$": 2108,
      "ĠFran": 2109,
      "ĠMat": 2110,
      "ĠBy": 2111,
      "Ġvol": 2112,
      "ĠCal": 2113,
      "Ġdeb": 2114,
      "rel": 2115,
      "gether": 2116,
      "Ġtogether": 2117,
      "Ġrelationship": 2118,
      "Ġeither": 2119,
      "ĠExper": 2120,
      "Ġrespons": 2121,
      "Ġinit": 2122,
      "ti": 2123,
      "Ġeduc": 2124,
      "Ġcost": 2125,
      "ape": 2126,
      "Ġnumer": 2127,
      "Ġmeans": 2128,
      "Ġtakes": 2129,
      "ĠUp": 2130,
      "Ġnorth": 2131,
      "Ġerr": 2132,
      "Ġcho": 2133,
      "aken": 2134,
      "Ġreason": 2135,
      "ĠLeague": 2136,
      "Ġtw": 2137,
      "Ġ2012": 2138,
      "unc": 2139,
      "ĠAnalysis": 2140,
      "Ġlife": 2141,
      "Ġmanag": 2142,
      "ĠProfession": 2143,
      "ĠSystem": 2144,
      "ĠSu": 2145,
      "ATE": 2146,
      "Ġequations": 2147,
      "ung": 2148,
      "Ġextreme": 2149,
      "aim": 2150,
      "Ġbuilding": 2151,
      "rodu": 2152,
      "Ġhere": 2153,
      "lock": 2154,
      "Ġrequired": 2155,
      "umn": 2156,
      "cil": 2157,
      "ĠProv": 2158,
      "ithm": 2159,
      "Ġâ": 2160,
      "work": 2161,
      "Ġgood": 2162,
      "ham": 2163,
      "Ġprovided": 2164,
      "Ġbehind": 2165,
      "ĠMed": 2166,
      "Ġ2013": 2167,
      "}{\\": 2168,
      "Ġfig": 2169,
      "Ġdistance": 2170,
      "uthor": 2171,
      "Ġ2014": 2172,
      "ĠMath": 2173,
      "Ġconc": 2174,
      "Ġcentury": 2175,
      "Ġ21": 2176,
      "Ġactiv": 2177,
      "ĠKing": 2178,
      "ĠAf": 2179,
      "Ġdisplay": 2180,
      "Ġpercent": 2181,
      "ĠMin": 2182,
      "inning": 2183,
      "Ġ40": 2184,
      "ertain": 2185,
      "ĠSec": 2186,
      "Ġresults": 2187,
      "Ġsit": 2188,
      "();": 2189,
      "for": 2190,
      "ories": 2191,
      "co": 2192,
      "cos": 2193,
      "####": 2194,
      "23": 2195,
      "Ġpositive": 2196,
      "ĠDiv": 2197,
      "Ġleast": 2198,
      "ma": 2199,
      "used": 2200,
      "ĠCanad": 2201,
      "\":": 2202,
      "ĠEd": 2203,
      "born": 2204,
      "sin": 2205,
      "Ġfrequ": 2206,
      "ND": 2207,
      "ille": 2208,
      "Ġspecific": 2209,
      "ored": 2210,
      "ances": 2211,
      "tra": 2212,
      "ĠPart": 2213,
      "urg": 2214,
      "Ġcover": 2215,
      "Ġregular": 2216,
      "ĠDuring": 2217,
      "ĠNo": 2218,
      "angu": 2219,
      "Ġconsent": 2220,
      "abase": 2221,
      "Ġscen": 2222,
      "Ġpublished": 2223,
      "If": 2224,
      "ĠWest": 2225,
      "ĠExtreme": 2226,
      "Ġconsole": 2227,
      "rect": 2228,
      "Ġarr": 2229,
      "Ġcamp": 2230,
      "Ġsimilar": 2231,
      "64": 2232,
      "ĠBo": 2233,
      "Ġimportant": 2234,
      ")(": 2235,
      "ense": 2236,
      "ning": 2237,
      "ĠAb": 2238,
      "Ġ2009": 2239,
      "ĠFinally": 2240,
      "Ġvillage": 2241,
      "Ġdepending": 2242,
      "Ġtransform": 2243,
      "Ġvariables": 2244,
      "epend": 2245,
      "Ġnational": 2246,
      "Ġthough": 2247,
      "Ġecho": 2248,
      "Ġ22": 2249,
      "Ġamong": 2250,
      "Ġ2008": 2251,
      "Ġtravel": 2252,
      "lection": 2253,
      "ĠTra": 2254,
      "ender": 2255,
      "Ġspecies": 2256,
      "Ġnegative": 2257,
      "riend": 2258,
      "Ġhands": 2259,
      "Ġfootball": 2260,
      "Ġ23": 2261,
      "Ġhaving": 2262,
      "Ġlearn": 2263,
      "mp": 2264,
      "Ġeffect": 2265,
      "Ġindivid": 2266,
      "ailable": 2267,
      "ĠConsole": 2268,
      "Ġ2015": 2269,
      "Low": 2270,
      "Ġ!": 2271,
      "Ġturn": 2272,
      "RO": 2273,
      "rench": 2274,
      "ner": 2275,
      "Ġround": 2276,
      "reen": 2277,
      "Ġdeath": 2278,
      "ĠOne": 2279,
      "AR": 2280,
      "Ġcircle": 2281,
      "Ġangles": 2282,
      "rop": 2283,
      "ĠAng": 2284,
      "ĠChrist": 2285,
      "wise": 2286,
      "here": 2287,
      "ney": 2288,
      "ĠBar": 2289,
      "lev": 2290,
      "ĠĊĠ": 2291,
      "Ġdied": 2292,
      "inter": 2293,
      "Ġrespect": 2294,
      "ĠMc": 2295,
      "Ġlab": 2296,
      "ĠThen": 2297,
      "ĠHar": 2298,
      "ĠMaking": 2299,
      "ference": 2300,
      "ĠEnglish": 2301,
      "Ġoutput": 2302,
      "Ġsouth": 2303,
      "displaystyle": 2304,
      "ĠVal": 2305,
      "Level": 2306,
      "Ġ60": 2307,
      "Ġtrack": 2308,
      "Ġfunctions": 2309,
      "Ġ>=": 2310,
      "Ġmultipl": 2311,
      "Ġassoci": 2312,
      "pos": 2313,
      "Ġke": 2314,
      "Ġgreat": 2315,
      "à¤": 2316,
      "ĠThese": 2317,
      "ison": 2318,
      "Ġ27": 2319,
      "ĠDecision": 2320,
      "ĠĠĠĠĠĠĠĠĠĠĠĠĠĠĠĠ": 2321,
      "Ġrequire": 2322,
      "ĠGeor": 2323,
      "Question": 2324,
      "Ġsent": 2325,
      "Ġmultiply": 2326,
      "ĠBeginners": 2327,
      "Ġfactors": 2328,
      "\\\\": 2329,
      "ese": 2330,
      "Ġfew": 2331,
      "ĠExperts": 2332,
      "ĠCollege": 2333,
      "ention": 2334,
      "Ġreturns": 2335,
      ")=": 2336,
      "ief": 2337,
      "Ġchange": 2338,
      "ruction": 2339,
      "Ġder": 2340,
      "ĠProfessionals": 2341,
      "Ġdouble": 2342,
      "Ġmen": 2343,
      "Ġu": 2344,
      "ĠExample": 2345,
      "Ġspecial": 2346,
      "Ġfurther": 2347,
      "Ġdeterm": 2348,
      "Ġ2006": 2349,
      "uck": 2350,
      "Ġservice": 2351,
      "ĠRec": 2352,
      "Ġ2007": 2353,
      "Ġmax": 2354,
      "Ch": 2355,
      "AS": 2356,
      "`,": 2357,
      "Ġrisk": 2358,
      "estern": 2359,
      "Sc": 2360,
      "ordin": 2361,
      "alle": 2362,
      "Ċĉĉ": 2363,
      "Ġrate": 2364,
      "Ġ28": 2365,
      "ector": 2366,
      "uild": 2367,
      "cd": 2368,
      "Ġins": 2369,
      "ĠÎ": 2370,
      "ploy": 2371,
      "ries": 2372,
      "Ġmoved": 2373,
      "rad": 2374,
      "Ġport": 2375,
      "Ġask": 2376,
      "face": 2377,
      "Ġworks": 2378,
      "Ġproject": 2379,
      "col": 2380,
      "ĠOther": 2381,
      "Ġï": 2382,
      "be": 2383,
      "De": 2384,
      "Ġamount": 2385,
      "odes": 2386,
      "Ġep": 2387,
      "ony": 2388,
      "Ġhalf": 2389,
      "Ġ2016": 2390,
      "ĠYou": 2391,
      "Ġ2018": 2392,
      "Ġelect": 2393,
      "Ġfore": 2394,
      "eder": 2395,
      "100": 2396,
      "ĠFrench": 2397,
      "dfrac": 2398,
      "gebra": 2399,
      "Ġprivate": 2400,
      "ana": 2401,
      "icle": 2402,
      "Ġaff": 2403,
      "Ġmag": 2404,
      "ĊĠĠĠĠĠĠĠĠĠĠĠĠĠĠĠĠĠĠĠ": 2405,
      "ĠRo": 2406,
      "adem": 2407,
      "ouncil": 2408,
      "Ġson": 2409,
      "ograph": 2410,
      "respond": 2411,
      "Ġla": 2412,
      "reet": 2413,
      "Ġrow": 2414,
      "ĠMe": 2415,
      "âĢ¦": 2416,
      "Ġexpression": 2417,
      "string": 2418,
      "amb": 2419,
      "22": 2420,
      "IT": 2421,
      "artment": 2422,
      "apan": 2423,
      "Ġunits": 2424,
      "ratic": 2425,
      "valid": 2426,
      "urity": 2427,
      "less": 2428,
      "Ġdenomin": 2429,
      "bs": 2430,
      "ino": 2431,
      "ye": 2432,
      "ĠDistrict": 2433,
      "Ġrole": 2434,
      "Ġannoun": 2435,
      "Ġ2017": 2436,
      "ĠHer": 2437,
      "Ġparticular": 2438,
      "Ġheight": 2439,
      "Ġ190": 2440,
      "ĠWith": 2441,
      "Ġcareer": 2442,
      "ondon": 2443,
      "ĠHand": 2444,
      "Ġsay": 2445,
      "Ġcharacter": 2446,
      "Ġstarted": 2447,
      "Ġappoint": 2448,
      "lu": 2449,
      "ators": 2450,
      "Ġupon": 2451,
      "Ġdistrib": 2452,
      "time": 2453,
      "Ġdescribed": 2454,
      "AL": 2455,
      "Ġzero": 2456,
      "Ġtitle": 2457,
      "alls": 2458,
      "itary": 2459,
      "Ġled": 2460,
      "Ġcountry": 2461,
      "ĠSim": 2462,
      "sing": 2463,
      "ĠRes": 2464,
      "ĠCalculate": 2465,
      "UL": 2466,
      "ĠPre": 2467,
      "Ġconsidered": 2468,
      "40": 2469,
      "vert": 2470,
      "Ġindicating": 2471,
      "ream": 2472,
      "So": 2473,
      "ĠWilliam": 2474,
      "lease": 2475,
      "Ġlines": 2476,
      "ĠPark": 2477,
      "ERE": 2478,
      "Ġwar": 2479,
      "Ġsold": 2480,
      "arrow": 2481,
      "ĠFr": 2482,
      "self": 2483,
      "reate": 2484,
      "ideo": 2485,
      "aily": 2486,
      "ler": 2487,
      "Ġquestion": 2488,
      "apter": 2489,
      "Ġadditional": 2490,
      "Ġdivision": 2491,
      "lished": 2492,
      "Ġprobability": 2493,
      "ection": 2494,
      "Ġexist": 2495,
      "iet": 2496,
      "oring": 2497,
      "Ġavailable": 2498,
      "Ġbat": 2499,
      "Ġhistory": 2500,
      "There": 2501,
      "ĠNe": 2502,
      "ĠRiver": 2503,
      "reg": 2504,
      "Ġwomen": 2505,
      "wh": 2506,
      "Ġfem": 2507,
      "Ġprote": 2508,
      "Ġcorrespond": 2509,
      "Ġrat": 2510,
      "Ġbecome": 2511,
      "$.": 2512,
      "osp": 2513,
      "uted": 2514,
      "Ġreturned": 2515,
      "ĠÂ": 2516,
      "Ġ\"\"": 2517,
      "ET": 2518,
      "Ġupd": 2519,
      "aint": 2520,
      "ores": 2521,
      "Ġscenari": 2522,
      "apt": 2523,
      "ĠChar": 2524,
      "estions": 2525,
      "Ġdatabase": 2526,
      "ĠAfric": 2527,
      "ĠGerman": 2528,
      "Ġprofessional": 2529,
      "ested": 2530,
      "aper": 2531,
      "OT": 2532,
      "200": 2533,
      "ĠAcc": 2534,
      "ford": 2535,
      "Ġimp": 2536,
      "ustom": 2537,
      "Ġensure": 2538,
      "ĠĊĠĠĠĠĠĠĠĠĠĠĠ": 2539,
      "Ġkey": 2540,
      "medi": 2541,
      "ĠRuss": 2542,
      "ĠComp": 2543,
      "Ġwash": 2544,
      "Ġimpro": 2545,
      "Ġtry": 2546,
      "ones": 2547,
      "Ġtaken": 2548,
      "21": 2549,
      "Ġgames": 2550,
      "iding": 2551,
      "sec": 2552,
      "Ġbusiness": 2553,
      "ĠAir": 2554,
      "iment": 2555,
      "Ġredu": 2556,
      "Ġdel": 2557,
      "Ġfractions": 2558,
      "ĠJapan": 2559,
      ".\");": 2560,
      "empt": 2561,
      "ĠLondon": 2562,
      "unic": 2563,
      "75": 2564,
      "Ġfather": 2565,
      "cer": 2566,
      "Ġstandard": 2567,
      "Ġactions": 2568,
      "ĠPres": 2569,
      "ĊĉĠĠĠ": 2570,
      "Ġfac": 2571,
      "Ġlate": 2572,
      "Ġdraw": 2573,
      "ĠWH": 2574,
      "rant": 2575,
      "Ġpair": 2576,
      "ude": 2577,
      "trans": 2578,
      "Ġ${": 2579,
      "Ġcreated": 2580,
      "Ġmillion": 2581,
      "Ġcame": 2582,
      "ties": 2583,
      "Ġprintln": 2584,
      "Ġwhole": 2585,
      "Ġdefine": 2586,
      "tt": 2587,
      "Let": 2588,
      "99": 2589,
      "ilities": 2590,
      "ST": 2591,
      "plements": 2592,
      "Ġtechni": 2593,
      "WriteLine": 2594,
      "ops": 2595,
      "tract": 2596,
      "Ġimplements": 2597,
      "cription": 2598,
      "Ġpersonal": 2599,
      "Ġ2019": 2600,
      "Ġwent": 2601,
      "ĠStud": 2602,
      "Ġren": 2603,
      "raft": 2604,
      "uk": 2605,
      "ee": 2606,
      "ĊĊĠ": 2607,
      "Ġfr": 2608,
      "(\\": 2609,
      "Ġreliability": 2610,
      "Ġgreater": 2611,
      "Ġupdate": 2612,
      "Invalid": 2613,
      "ĊĠĠ": 2614,
      "leg": 2615,
      "Ġestablished": 2616,
      "Ġ26": 2617,
      "Ġsepar": 2618,
      "hel": 2619,
      "str": 2620,
      "stitute": 2621,
      "Hygiene": 2622,
      "eneral": 2623,
      "idence": 2624,
      "ills": 2625,
      "esign": 2626,
      "ĠSan": 2627,
      "cast": 2628,
      "ÂĿ": 2629,
      "Ġview": 2630,
      "Ġauthor": 2631,
      "________": 2632,
      "ĠSw": 2633,
      "ients": 2634,
      "roup": 2635,
      "ceed": 2636,
      "CH": 2637,
      "Ġareas": 2638,
      "dle": 2639,
      "ĠDetermine": 2640,
      "Ġaccording": 2641,
      "Ġfeature": 2642,
      "nee": 2643,
      "Ġrese": 2644,
      "ecess": 2645,
      "Ġhold": 2646,
      "conom": 2647,
      "Ġregion": 2648,
      "Ġlevels": 2649,
      "})": 2650,
      "Ġyoung": 2651,
      "ÂĿÂ": 2652,
      "Ġattack": 2653,
      "ole": 2654,
      "Ġsize": 2655,
      "Ġsugg": 2656,
      "ĠFrom": 2657,
      "def": 2658,
      "ridge": 2659,
      "rick": 2660,
      "Ġlangu": 2661,
      "ogn": 2662,
      "High": 2663,
      "aring": 2664,
      "ĠAg": 2665,
      "Ġsocial": 2666,
      "Ġet": 2667,
      "Ġpatient": 2668,
      "Ġcertain": 2669,
      "80": 2670,
      "Ġfull": 2671,
      "Now": 2672,
      "xim": 2673,
      "ĠChampionship": 2674,
      "Ġdistrict": 2675,
      "Ġstudy": 2676,
      "otal": 2677,
      "pi": 2678,
      "Ġworked": 2679,
      "Ġcreate": 2680,
      "orem": 2681,
      "Ste": 2682,
      "Ġanalysis": 2683,
      "Ġwrite": 2684,
      "Ġinvest": 2685,
      "ached": 2686,
      "rea": 2687,
      "Ġrul": 2688,
      "ĠAS": 2689,
      "ming": 2690,
      "Ġ]": 2691,
      "Ġunderstand": 2692,
      "Ġquad": 2693,
      "Ġincludes": 2694,
      "ĠÏĢ": 2695,
      "ĠDav": 2696,
      "Ġhowever": 2697,
      "rees": 2698,
      "Ġmeasure": 2699,
      "ourn": 2700,
      "90": 2701,
      "Ġide": 2702,
      "Ġdecimal": 2703,
      "Ġprompt": 2704,
      "Ġworking": 2705,
      ",\\": 2706,
      "Ġappe": 2707,
      "ĠSince": 2708,
      "plan": 2709,
      "Ġonce": 2710,
      "not": 2711,
      "rote": 2712,
      "ara": 2713,
      "rie": 2714,
      "Ġcolumn": 2715,
      "Ġfmt": 2716,
      "ython": 2717,
      "Ġversion": 2718,
      "ĠHouse": 2719,
      "Ġfeat": 2720,
      "ification": 2721,
      "Ġprim": 2722,
      "na": 2723,
      "bol": 2724,
      ":\"": 2725,
      "ormal": 2726,
      "avy": 2727,
      "ĠDivision": 2728,
      "Ġproperty": 2729,
      "Ġdetailed": 2730,
      "mathrm": 2731,
      "Ġreview": 2732,
      "Ġplayer": 2733,
      "Ġadded": 2734,
      "Ġaward": 2735,
      "ald": 2736,
      "Ġpri": 2737,
      "Ġparts": 2738,
      "Ġproduced": 2739,
      "Ġtemperature": 2740,
      "ynomial": 2741,
      "lim": 2742,
      "Ġannounced": 2743,
      "Ġobt": 2744,
      "levision": 2745,
      "ilet": 2746,
      "Ġill": 2747,
      "Ġformed": 2748,
      "oe": 2749,
      "oph": 2750,
      "Ġbody": 2751,
      "ĠClass": 2752,
      "Ġtransparency": 2753,
      "Ġmy": 2754,
      "ĠCup": 2755,
      "Ġsequ": 2756,
      "Ġarch": 2757,
      "ossing": 2758,
      "iron": 2759,
      "Ġaccess": 2760,
      "ID": 2761,
      "aul": 2762,
      "cdot": 2763,
      "ights": 2764,
      "Ġalways": 2765,
      "mented": 2766,
      "Ġdate": 2767,
      "32": 2768,
      "oll": 2769,
      "Ġpe": 2770,
      "Ġcommand": 2771,
      "Ġpot": 2772,
      "sk": 2773,
      "Ġclaim": 2774,
      "Ġspace": 2775,
      "utive": 2776,
      "ĠGo": 2777,
      "Ġfriend": 2778,
      "Ġmultiple": 2779,
      "=\"": 2780,
      "Ġten": 2781,
      "Ġmeet": 2782,
      "ters": 2783,
      "iber": 2784,
      "Ġ2000": 2785,
      "aterial": 2786,
      "ĠNot": 2787,
      "rest": 2788,
      "Ġcommunity": 2789,
      "Ġmathemat": 2790,
      "Ġintrodu": 2791,
      "Ġcontains": 2792,
      "sequ": 2793,
      "++": 2794,
      "Ġunit": 2795,
      "Ġenc": 2796,
      "Ġjoined": 2797,
      "Ġdevelopment": 2798,
      "ells": 2799,
      "rew": 2800,
      "Ġkill": 2801,
      ")-": 2802,
      "ĠSer": 2803,
      "Ġmarried": 2804,
      "Ġcult": 2805,
      "Tr": 2806,
      "ises": 2807,
      "ips": 2808,
      ",\"": 2809,
      "Ġcomplex": 2810,
      "Ġhistor": 2811,
      "Ġpopular": 2812,
      "ĠLet": 2813,
      "Ġdegree": 2814,
      "ĠEngland": 2815,
      "println": 2816,
      "Print": 2817,
      "ĠEar": 2818,
      "Ġscenarios": 2819,
      "umb": 2820,
      "aff": 2821,
      "ĠPat": 2822,
      "âĤ": 2823,
      "Ġfree": 2824,
      "Ġcos": 2825,
      "hand": 2826,
      "oo": 2827,
      "ĠPhil": 2828,
      "Ġ90": 2829,
      "ptoms": 2830,
      "Ġgrow": 2831,
      "Ġsteps": 2832,
      "dd": 2833,
      "Ġdiag": 2834,
      "emb": 2835,
      "Ġevents": 2836,
      "Ġcross": 2837,
      "ĠInternational": 2838,
      "27": 2839,
      "28": 2840,
      "resents": 2841,
      "Ġblock": 2842,
      "now": 2843,
      "Ġoppos": 2844,
      "Sh": 2845,
      "atural": 2846,
      "ĠApp": 2847,
      "ising": 2848,
      "inner": 2849,
      "Ġdest": 2850,
      "Ġcorrect": 2851,
      "Ġindepend": 2852,
      "opp": 2853,
      "function": 2854,
      "Ġ||": 2855,
      "Ġfood": 2856,
      "$$\\": 2857,
      "Ġwrote": 2858,
      "Ġsite": 2859,
      "Ġflo": 2860,
      "hern": 2861,
      "ĊĠĠĠĠĠĠĠĠĠ": 2862,
      "Ġparticip": 2863,
      "Ġspeed": 2864,
      "ĠEast": 2865,
      "ixed": 2866,
      "Ġ2005": 2867,
      "....": 2868,
      "Ġgen": 2869,
      "ares": 2870,
      "omb": 2871,
      "AB": 2872,
      "asing": 2873,
      "')": 2874,
      "van": 2875,
      "Ġrepresents": 2876,
      "Ġlinear": 2877,
      "Ġgradu": 2878,
      "Ġparam": 2879,
      "Ġothers": 2880,
      "ĠAct": 2881,
      "ĠConsider": 2882,
      "ĠIndian": 2883,
      "year": 2884,
      "Enter": 2885,
      "IM": 2886,
      "45": 2887,
      "Ġsimple": 2888,
      "Ġdefe": 2889,
      "Ġsimpl": 2890,
      "Ġregard": 2891,
      "Ġsignific": 2892,
      "Ġ29": 2893,
      "Ġcr": 2894,
      "ĠMon": 2895,
      "Ġminutes": 2896,
      "Ġconcept": 2897,
      "Ġgive": 2898,
      "Ġdefault": 2899,
      "Ġver": 2900,
      "ĠAc": 2901,
      "Ġparalle": 2902,
      "Ġword": 2903,
      "ociety": 2904,
      "(-": 2905,
      "yes": 2906,
      "ĠDep": 2907,
      "`.": 2908,
      "ĠAssoci": 2909,
      "Ġbecom": 2910,
      "minist": 2911,
      "Ġ45": 2912,
      "array": 2913,
      "oted": 2914,
      "Ġproduction": 2915,
      "ĠAccording": 2916,
      "Ġstatus": 2917,
      "Ġcontinued": 2918,
      "}+": 2919,
      "ĠCour": 2920,
      "Ġattempt": 2921,
      "ably": 2922,
      "itor": 2923,
      "Ġmodule": 2924,
      "oney": 2925,
      "Ġshows": 2926,
      "Ġwhose": 2927,
      "space": 2928,
      "no": 2929,
      "ĠEm": 2930,
      "Ġtreat": 2931,
      "Ġmodel": 2932,
      "data": 2933,
      "ellow": 2934,
      "Ġcenter": 2935,
      "orts": 2936,
      "Ġrule": 2937,
      "Ġtask": 2938,
      "Ġcomput": 2939,
      "ĠSm": 2940,
      "ĠRel": 2941,
      "orthern": 2942,
      "ĠGra": 2943,
      "Ġdenominator": 2944,
      "No": 2945,
      "Ġrail": 2946,
      "alu": 2947,
      "ament": 2948,
      "Ġfollowed": 2949,
      "Ġacross": 2950,
      "ĠEqu": 2951,
      "{{": 2952,
      "lex": 2953,
      "Ġfigure": 2954,
      "Al": 2955,
      "ĠFirst": 2956,
      "[:": 2957,
      "etic": 2958,
      "oyal": 2959,
      "Ġ+=": 2960,
      "itiz": 2961,
      "Ġeducation": 2962,
      "Ġfund": 2963,
      "Ġelection": 2964,
      "ĠNOT": 2965,
      "Ġroad": 2966,
      "high": 2967,
      "Ġpolitical": 2968,
      "Ġoutside": 2969,
      "]-": 2970,
      "Ġaway": 2971,
      "lands": 2972,
      "iting": 2973,
      "Ġable": 2974,
      "Ġtypes": 2975,
      "Ġrect": 2976,
      "ster": 2977,
      "Ġreasoning": 2978,
      "ivacy": 2979,
      "etwork": 2980,
      "Ġdivis": 2981,
      "ĠLa": 2982,
      "Ġhost": 2983,
      "Ġmot": 2984,
      "ivil": 2985,
      "fect": 2986,
      "Ġred": 2987,
      "ĠRoman": 2988,
      "itions": 2989,
      "Ġexec": 2990,
      "acher": 2991,
      "Ġoccur": 2992,
      "Ġoffer": 2993,
      "ĠChurch": 2994,
      "Ġinstead": 2995,
      "Ġsection": 2996,
      "duc": 2997,
      "outher": 2998,
      "ĠMich": 2999,
      "ercise": 3000,
      "fic": 3001,
      "Ġsuccessful": 3002,
      "uby": 3003,
      "ource": 3004,
      "Ġerror": 3005,
      ")\\": 3006,
      "yd": 3007,
      "ĠSub": 3008,
      "Script": 3009,
      "bor": 3010,
      "Ġvideo": 3011,
      "ĠArt": 3012,
      "Ġtradition": 3013,
      "Ġperm": 3014,
      "Ġrecorded": 3015,
      "pper": 3016,
      "hem": 3017,
      "atch": 3018,
      "Ġsitu": 3019,
      "ĠCont": 3020,
      "Ġshown": 3021,
      "Ġwin": 3022,
      "Ġapproxim": 3023,
      "planation": 3024,
      "Ġcut": 3025,
      "ror": 3026,
      "Ġdon": 3027,
      "Ġge": 3028,
      "UR": 3029,
      "outhern": 3030,
      "ĠCor": 3031,
      ".\")": 3032,
      "Ġdifference": 3033,
      "ĠFunction": 3034,
      "Ġweight": 3035,
      "Ġindust": 3036,
      "ville": 3037,
      "ges": 3038,
      "reek": 3039,
      "eria": 3040,
      "Ġnecess": 3041,
      "Ġ2004": 3042,
      "ette": 3043,
      "Example": 3044,
      "Ġoperations": 3045,
      "Ġcleaning": 3046,
      "Ġ<=": 3047,
      "level": 3048,
      "Ġneeded": 3049,
      "ĠImplement": 3050,
      "}}{": 3051,
      "ĠBut": 3052,
      "ocumented": 3053,
      "irl": 3054,
      "field": 3055,
      "Ġconn": 3056,
      "Ġpress": 3057,
      "atic": 3058,
      "mit": 3059,
      "Ġprice": 3060,
      "$,": 3061,
      "ĠGeneral": 3062,
      "ION": 3063,
      "Ġfoc": 3064,
      "Ġperformed": 3065,
      "Ġaut": 3066,
      "Ġepis": 3067,
      "Ġetc": 3068,
      "ha": 3069,
      "ĠIndia": 3070,
      "iforn": 3071,
      "most": 3072,
      "ply": 3073,
      "Ġmaterial": 3074,
      "Ġresearch": 3075,
      "rig": 3076,
      "ĠPresident": 3077,
      "ĠSome": 3078,
      "Ġeight": 3079,
      "eh": 3080,
      "Ġnever": 3081,
      "nown": 3082,
      "ĠEuropean": 3083,
      "Ġlik": 3084,
      "Ġstudent": 3085,
      "\"]": 3086,
      "igned": 3087,
      "Ġwind": 3088,
      "Ġapply": 3089,
      "Ġhours": 3090,
      "onse": 3091,
      "ĠCouncil": 3092,
      "Ġlost": 3093,
      "Ġrac": 3094,
      "ĠAustralia": 3095,
      "Ġstory": 3096,
      "ensus": 3097,
      "Ġroot": 3098,
      "aries": 3099,
      "Ġgroups": 3100,
      "Ġofficial": 3101,
      "Ġemploy": 3102,
      "action": 3103,
      "Ġstore": 3104,
      "Ġratio": 3105,
      "He": 3106,
      "Ġsafety": 3107,
      "Ġcapt": 3108,
      "Ġrecogn": 3109,
      "Ġmatrix": 3110,
      "33": 3111,
      "Ġplan": 3112,
      "ifornia": 3113,
      "unicip": 3114,
      "Ġbrother": 3115,
      "ico": 3116,
      "Â²": 3117,
      "ĠStreet": 3118,
      "istance": 3119,
      "Ġopt": 3120,
      "Ġchurch": 3121,
      "Ġevalu": 3122,
      "Ġpay": 3123,
      "ĊĊĠĠĠĠĠĠĠ": 3124,
      "Ġmilitary": 3125,
      "ĠEns": 3126,
      "angles": 3127,
      "chie": 3128,
      "fficient": 3129,
      "Ġstrong": 3130,
      "Ġtaking": 3131,
      "ĠRepublic": 3132,
      "EN": 3133,
      "Ġparty": 3134,
      "Step": 3135,
      "Ġcong": 3136,
      "ĠBel": 3137,
      "Ġrev": 3138,
      "Ġpractice": 3139,
      "ĠGovern": 3140,
      "cing": 3141,
      "EF": 3142,
      "useum": 3143,
      "Ġcustom": 3144,
      "iction": 3145,
      "making": 3146,
      "istic": 3147,
      "Ġgives": 3148,
      "Ġ180": 3149,
      "Ġmath": 3150,
      "Ġlower": 3151,
      "Ġtelevision": 3152,
      "itte": 3153,
      "ological": 3154,
      "Ġground": 3155,
      "Ġgoing": 3156,
      "ĠArmy": 3157,
      "Ġconstant": 3158,
      "ĠWHERE": 3159,
      "Ġcompleted": 3160,
      "Ġopened": 3161,
      "ĠParty": 3162,
      "Ġinflu": 3163,
      "Ġdivided": 3164,
      "ĠCalifornia": 3165,
      "itness": 3166,
      "Ġbroad": 3167,
      "Ġliving": 3168,
      "ĠOut": 3169,
      "Ġprivacy": 3170,
      "Ġ===": 3171,
      "Ġ189": 3172,
      "br": 3173,
      "Ġeconom": 3174,
      "Ġlight": 3175,
      "Ġphys": 3176,
      "aur": 3177,
      "hib": 3178,
      "Build": 3179,
      "Ġeast": 3180,
      ".)": 3181,
      "Ġfounded": 3182,
      "29": 3183,
      "ĠBat": 3184,
      "Ġproducts": 3185,
      "Ġremain": 3186,
      "ready": 3187,
      "Ġcorresponding": 3188,
      "ship": 3189,
      "Ġ188": 3190,
      "Ġinternational": 3191,
      "ĠAmerica": 3192,
      "ĠSum": 3193,
      "Ġmight": 3194,
      "Ġ36": 3195,
      "Ġprime": 3196,
      "26": 3197,
      "itude": 3198,
      "ĠFrance": 3199,
      "36": 3200,
      "Ġcomplete": 3201,
      "REATE": 3202,
      "Ġslope": 3203,
      "Ġappeared": 3204,
      "Ġlargest": 3205,
      ".\\": 3206,
      "ĠSch": 3207,
      "Ġmonths": 3208,
      "Ġcourse": 3209,
      "('": 3210,
      "ergy": 3211,
      "Ġentered": 3212,
      "Ġoverall": 3213,
      "Ġvector": 3214,
      "Ġax": 3215,
      "Ġparen": 3216,
      "ĠQue": 3217,
      "aving": 3218,
      "ama": 3219,
      "Ġmiss": 3220,
      "ĠMal": 3221,
      "era": 3222,
      "AM": 3223,
      "Ġdaugh": 3224,
      "Ġforce": 3225,
      "ĊĉĠĠĠĠĠĠĠ": 3226,
      "known": 3227,
      "Ġvert": 3228,
      "lin": 3229,
      "Ġsignificant": 3230,
      "fact": 3231,
      "Ġitems": 3232,
      "imate": 3233,
      "Ġreported": 3234,
      "ĠJava": 3235,
      "Ġsurface": 3236,
      "Ġdebut": 3237,
      "Ġsw": 3238,
      "Ġhighest": 3239,
      "urb": 3240,
      "Ġwid": 3241,
      "ĠWhile": 3242,
      "Ġsin": 3243,
      "ĠJames": 3244,
      "Ġaccount": 3245,
      "Ġvalid": 3246,
      "Ġdeveloped": 3247,
      "Ġhor": 3248,
      "input": 3249,
      "ĠĊĠĠĠĠĠ": 3250,
      "Ġfollows": 3251,
      "Ġcurrently": 3252,
      "Ġoutline": 3253,
      "Ġchanges": 3254,
      "ged": 3255,
      "ĊĉĊ": 3256,
      "Ġexpert": 3257,
      "70": 3258,
      "Ġdone": 3259,
      "ĠDo": 3260,
      "ĠPort": 3261,
      "Ġgl": 3262,
      "inary": 3263,
      "ĠHol": 3264,
      "ĠEnsure": 3265,
      "ĠLine": 3266,
      "omp": 3267,
      "Ġcoordin": 3268,
      "den": 3269,
      "Ġsigned": 3270,
      "-\\": 3271,
      "Create": 3272,
      "Ġclose": 3273,
      "Ġthroughout": 3274,
      "off": 3275,
      "Ġdefined": 3276,
      "Ġselected": 3277,
      "},": 3278,
      "Ġeth": 3279,
      "andom": 3280,
      "eters": 3281,
      "uel": 3282,
      "Ġtechn": 3283,
      "ibr": 3284,
      "35": 3285,
      "ĊĠĠĠĠĠĠĠĠĠĠĠĠ": 3286,
      "ox": 3287,
      "Ġexpon": 3288,
      "Ġpolynomial": 3289,
      "Ġstra": 3290,
      "km": 3291,
      "part": 3292,
      "documented": 3293,
      "ÂĿÂĳ": 3294,
      "ources": 3295,
      "ica": 3296,
      "arian": 3297,
      "Ġstatic": 3298,
      "Ġalready": 3299,
      "iff": 3300,
      "Ġkeep": 3301,
      "Ġpain": 3302,
      "atives": 3303,
      "Ġsimply": 3304,
      "ĠGl": 3305,
      "Ġentire": 3306,
      "ids": 3307,
      "ests": 3308,
      "Ġthink": 3309,
      "Ġ:=": 3310,
      "Ġpresident": 3311,
      "clus": 3312,
      "Ġwest": 3313,
      "Ġ(-": 3314,
      "quad": 3315,
      "liness": 3316,
      "Ġservices": 3317,
      "Ġhigher": 3318,
      "ĠMult": 3319,
      "Ġmaximum": 3320,
      "CA": 3321,
      "Ġelected": 3322,
      "ership": 3323,
      "ĠGeorge": 3324,
      "ĠMor": 3325,
      "ĠRober": 3326,
      "back": 3327,
      "OR": 3328,
      "ĠProvide": 3329,
      "ched": 3330,
      "Ġgoal": 3331,
      "ĠBra": 3332,
      "Ġsubject": 3333,
      "Ġ35": 3334,
      "Ġwife": 3335,
      "Ġindividual": 3336,
      "theta": 3337,
      "lymp": 3338,
      "ique": 3339,
      "What": 3340,
      "Ġappointed": 3341,
      "Ġfamil": 3342,
      "Ġrace": 3343,
      "Ġhab": 3344,
      "Ġdaily": 3345,
      "ĠCanada": 3346,
      "Ġhous": 3347,
      "ÂłÂłÂłÂłÂłÂłÂłÂł": 3348,
      "Ġitem": 3349,
      "Ġseven": 3350,
      "icles": 3351,
      "Ġoffice": 3352,
      "using": 3353,
      "Ġlanguage": 3354,
      "elling": 3355,
      "Ġrank": 3356,
      "ĠInter": 3357,
      "Ġways": 3358,
      "Ġmass": 3359,
      "Ġconditionally": 3360,
      "Ġaccept": 3361,
      "order": 3362,
      "Ġgave": 3363,
      "Develop": 3364,
      "ĠForm": 3365,
      "Ġ\"$": 3366,
      ")^": 3367,
      "Ġ65": 3368,
      "ĠRed": 3369,
      "Ġitself": 3370,
      "Ġseen": 3371,
      "Ġblack": 3372,
      "ications": 3373,
      "Ġstructured": 3374,
      "LECT": 3375,
      "Ġengine": 3376,
      "esc": 3377,
      "Ġcontrib": 3378,
      "Ġcub": 3379,
      "ects": 3380,
      "ĠTwo": 3381,
      "nd": 3382,
      "rec": 3383,
      "Ġquestions": 3384,
      "ĠDr": 3385,
      "ios": 3386,
      "ĠQuestion": 3387,
      "ĠTransform": 3388,
      "Ġbelie": 3389,
      "Ġconsist": 3390,
      "Ġmar": 3391,
      "Ġclos": 3392,
      "commented": 3393,
      "rem": 3394,
      "ĠExp": 3395,
      "user": 3396,
      "Ġdom": 3397,
      "Ġrepresented": 3398,
      "ĠUnion": 3399,
      "dom": 3400,
      "ĠAssociation": 3401,
      "ĠOlymp": 3402,
      "aching": 3403,
      "go": 3404,
      "Ġplaying": 3405,
      "Ġalthough": 3406,
      "anish": 3407,
      "Ġteams": 3408,
      "ĠPal": 3409,
      "Ġdev": 3410,
      "olic": 3411,
      "Ġrecommended": 3412,
      "Ġassociated": 3413,
      "iles": 3414,
      "ED": 3415,
      "ĠRich": 3416,
      "(`": 3417,
      "ĠSen": 3418,
      "Ġ(`": 3419,
      "ien": 3420,
      "pert": 3421,
      "Ġ2003": 3422,
      "Ġ80": 3423,
      "Ġpattern": 3424,
      "Println": 3425,
      "ĠFoot": 3426,
      "Ġbasic": 3427,
      "Ġrock": 3428,
      "Ġ{\\": 3429,
      "ĠStep": 3430,
      "alt": 3431,
      "Ġ\"\\": 3432,
      "Type": 3433,
      "Ġcoll": 3434,
      "ago": 3435,
      "Ġ1990": 3436,
      "ROM": 3437,
      "Ġstar": 3438,
      "onsent": 3439,
      "Ġ--": 3440,
      "point": 3441,
      "Ġnatural": 3442,
      "Ġrelease": 3443,
      "ij": 3444,
      "Ġengineer": 3445,
      "Ġste": 3446,
      "irm": 3447,
      "Ġinvolved": 3448,
      "ael": 3449,
      "ensive": 3450,
      "aps": 3451,
      "ometimes": 3452,
      "oist": 3453,
      "Ġhimself": 3454,
      "raw": 3455,
      "Ġabs": 3456,
      "new": 3457,
      "ought": 3458,
      "reed": 3459,
      "Design": 3460,
      "aves": 3461,
      "Ġlive": 3462,
      "Ġinters": 3463,
      "Ġlat": 3464,
      "aign": 3465,
      "igg": 3466,
      "Ġ()": 3467,
      "ques": 3468,
      "Ġdam": 3469,
      "ola": 3470,
      "Ġwords": 3471,
      "Ġdivide": 3472,
      "reshold": 3473,
      "Ġ31": 3474,
      "Ġ;": 3475,
      "Ġsat": 3476,
      "ĠSl": 3477,
      "ĠDem": 3478,
      "}=": 3479,
      "Ġachie": 3480,
      "Hand": 3481,
      "fit": 3482,
      "ournal": 3483,
      "abor": 3484,
      "Ġfar": 3485,
      "Ġsom": 3486,
      "How": 3487,
      "Ġlocation": 3488,
      "((": 3489,
      "izing": 3490,
      "Ġvict": 3491,
      "Ġmaint": 3492,
      "zing": 3493,
      "ĠSk": 3494,
      "ittee": 3495,
      "Con": 3496,
      "ĠLou": 3497,
      "olean": 3498,
      "Ġcontaining": 3499,
      "matrix": 3500,
      "----------------": 3501,
      "Ġdesigned": 3502,
      "ump": 3503,
      "athing": 3504,
      "Ġtext": 3505,
      "Ġfunctionality": 3506,
      "ounter": 3507,
      "ĩĴ": 3508,
      "AC": 3509,
      "Ġstates": 3510,
      "met": 3511,
      "Ġusually": 3512,
      "onsibility": 3513,
      "color": 3514,
      "Cl": 3515,
      "Ġmodern": 3516,
      "ĠKe": 3517,
      "Ġquery": 3518,
      "Score": 3519,
      "omas": 3520,
      "Ġsuper": 3521,
      "viron": 3522,
      "itation": 3523,
      "Ġcateg": 3524,
      "Ġstyle": 3525,
      "Ġbox": 3526,
      "ĠLaw": 3527,
      "Ġfeatures": 3528,
      "Ġhousehold": 3529,
      "ĠRoyal": 3530,
      "trust": 3531,
      "fl": 3532,
      "Ġsubtract": 3533,
      "!(\"": 3534,
      "Ġfront": 3535,
      "Ġmarket": 3536,
      "uses": 3537,
      "Ġmatches": 3538,
      "Ġfeet": 3539,
      "Ġcontract": 3540,
      "Ġexcept": 3541,
      "cel": 3542,
      "Ġhon": 3543,
      "ULL": 3544,
      "Ġsche": 3545,
      "ĠDisplay": 3546,
      "ducation": 3547,
      "Ġprinc": 3548,
      "Ġconstruction": 3549,
      "Ġdefin": 3550,
      "Ġupdated": 3551,
      "ĠMid": 3552,
      "Ġtoo": 3553,
      "Ġ2002": 3554,
      "Ġmother": 3555,
      "othing": 3556,
      "gor": 3557,
      "ĠGroup": 3558,
      "Ġmove": 3559,
      "Ġsolutions": 3560,
      "ĠString": 3561,
      "Ġelements": 3562,
      "Ġpur": 3563,
      "Ġhuman": 3564,
      "**": 3565,
      "Ġimmedi": 3566,
      "Ġcompos": 3567,
      "score": 3568,
      ")/": 3569,
      "Ġdirector": 3570,
      "Ġtro": 3571,
      "ĠGermany": 3572,
      "ĠAND": 3573,
      "Ġnovel": 3574,
      "Ġleading": 3575,
      "ĠHall": 3576,
      "wood": 3577,
      "Ġsymptoms": 3578,
      "ĠCO": 3579,
      "includ": 3580,
      "Ġearl": 3581,
      "ĠNow": 3582,
      "ĠProblem": 3583,
      "Ġnecessary": 3584,
      "Ġderiv": 3585,
      "Ġmultiplication": 3586,
      "On": 3587,
      "Ġcou": 3588,
      "Extreme": 3589,
      "Ġconstruct": 3590,
      "ĠCong": 3591,
      "EX": 3592,
      "ĠRoad": 3593,
      "Ġdirection": 3594,
      "ĠAcadem": 3595,
      "undred": 3596,
      "Ġqual": 3597,
      "Ġfinished": 3598,
      "ĠChapter": 3599,
      "rap": 3600,
      "Ġincome": 3601,
      "Ġprop": 3602,
      "Ġquant": 3603,
      "ĠAward": 3604,
      "Ġadj": 3605,
      "Ġelement": 3606,
      "ends": 3607,
      "ya": 3608,
      "ĊĉĠĠĠĠĠĠĠĠ": 3609,
      "Ġadminist": 3610,
      "Ġtoday": 3611,
      "ometric": 3612,
      "Ġrespectively": 3613,
      "Ġce": 3614,
      "arter": 3615,
      "Ġ1980": 3616,
      "ĠHist": 3617,
      "Ġinj": 3618,
      "ĠDis": 3619,
      "ĠWashing": 3620,
      "Ġhair": 3621,
      "Ġchecks": 3622,
      "Ġproperties": 3623,
      "Ġpurch": 3624,
      "ondition": 3625,
      "ishing": 3626,
      "ĠCompany": 3627,
      "liam": 3628,
      "ston": 3629,
      "Ġ2001": 3630,
      "mi": 3631,
      "Un": 3632,
      "Ġinitial": 3633,
      "Ġminimum": 3634,
      "ĠDavid": 3635,
      "Ġsequence": 3636,
      "estival": 3637,
      "ĠPaul": 3638,
      "Ġsem": 3639,
      "ĠKh": 3640,
      "dx": 3641,
      "ding": 3642,
      "Ġ?": 3643,
      "Ġbar": 3644,
      "ĠMark": 3645,
      "Ġperformance": 3646,
      "Ġbetter": 3647,
      "atus": 3648,
      "Ġvolume": 3649,
      "ĠAustralian": 3650,
      "ĠTri": 3651,
      "Ġpassed": 3652,
      "Ġtechnique": 3653,
      "ĠâĢĺ": 3654,
      "Ġdiscuss": 3655,
      "Data": 3656,
      "Ġfile": 3657,
      "head": 3658,
      "Ġmedical": 3659,
      "band": 3660,
      "Ġdecl": 3661,
      "liament": 3662,
      "ires": 3663,
      "ficult": 3664,
      "aut": 3665,
      "hygiene": 3666,
      "oon": 3667,
      "imens": 3668,
      "Ġdigit": 3669,
      "Ġcast": 3670,
      "ðĿ": 3671,
      "uments": 3672,
      "Ġrunning": 3673,
      "Ġ32": 3674,
      "ĠHen": 3675,
      "asons": 3676,
      "Ġ_": 3677,
      "ĠUpdate": 3678,
      "cle": 3679,
      "Ġfourth": 3680,
      "ĊĠĠĠĠĠĠĠĠĊĠĠĠĠĠĠĠ": 3681,
      "Time": 3682,
      "ĠMary": 3683,
      "Ġforces": 3684,
      "ivalent": 3685,
      "ĠUsing": 3686,
      "ander": 3687,
      "ĠCentral": 3688,
      "Ġ186": 3689,
      "Ġfire": 3690,
      "Ġenough": 3691,
      "Ġwriting": 3692,
      "ĠProper": 3693,
      "Ġwhite": 3694,
      "Ġrepresenting": 3695,
      "ĠSam": 3696,
      "ĠDepartment": 3697,
      "aged": 3698,
      "ĠNULL": 3699,
      "==": 3700,
      "ĠFROM": 3701,
      "ĠWork": 3702,
      "}_{": 3703,
      "Ġpred": 3704,
      "ĠNor": 3705,
      "Ġputs": 3706,
      "atory": 3707,
      "Ġdaughter": 3708,
      "Ġprec": 3709,
      "ĠLo": 3710,
      "Ġhapp": 3711,
      "Ġincrease": 3712,
      "Ġpotential": 3713,
      "Ġnames": 3714,
      "Ġtraining": 3715,
      "Ġcy": 3716,
      "ks": 3717,
      "ened": 3718,
      "Ġbi": 3719,
      "Ġallowed": 3720,
      "bal": 3721,
      "Ġmedian": 3722,
      "Ġissues": 3723,
      "Ġmedia": 3724,
      "Ġseg": 3725,
      "Ġcand": 3726,
      "west": 3727,
      "Ġmoney": 3728,
      "Ġbr": 3729,
      "cout": 3730,
      "Ġprevent": 3731,
      "ression": 3732,
      "plays": 3733,
      "ĠDi": 3734,
      "ĠNumber": 3735,
      "Ġplayers": 3736,
      "isl": 3737,
      "iers": 3738,
      "Ġwashing": 3739,
      "erate": 3740,
      "Ġtour": 3741,
      "Ġcome": 3742,
      "Ġloss": 3743,
      "othes": 3744,
      "ĠMex": 3745,
      "Ġlarger": 3746,
      "ĠThat": 3747,
      "aches": 3748,
      "Ġbank": 3749,
      "cial": 3750,
      "ĠRet": 3751,
      "rated": 3752,
      "Ġexamples": 3753,
      "ospital": 3754,
      "Ġindependent": 3755,
      "ĠTown": 3756,
      "Ġcontinu": 3757,
      "ĠCourt": 3758,
      "uration": 3759,
      "Ġorigin": 3760,
      "plit": 3761,
      "Ġradius": 3762,
      "Explanation": 3763,
      "Name": 3764,
      "Ġdistribution": 3765,
      "ĠINT": 3766,
      "Ġremained": 3767,
      "sel": 3768,
      "ĠChina": 3769,
      "Ġfav": 3770,
      "icy": 3771,
      "ĠType": 3772,
      "pat": 3773,
      "ĠBer": 3774,
      "Ġdeal": 3775,
      "RA": 3776,
      "Ġinteger": 3777,
      "ersonal": 3778,
      "ĠCenter": 3779,
      "Ġsongs": 3780,
      "Ġrather": 3781,
      "']": 3782,
      "ĠâĪł": 3783,
      "Ġorganization": 3784,
      "Ġleague": 3785,
      "comm": 3786,
      "\"),": 3787,
      "Ġhom": 3788,
      "burg": 3789,
      "Ġremov": 3790,
      "Ġsound": 3791,
      "orough": 3792,
      "ĠFact": 3793,
      "Ġexact": 3794,
      "ĠMil": 3795,
      "vironment": 3796,
      "Ġinside": 3797,
      "Ġball": 3798,
      "Ġcentral": 3799,
      "uals": 3800,
      "ĠIts": 3801,
      "Ġacqu": 3802,
      "Ġdirected": 3803,
      "ranch": 3804,
      "Ġpast": 3805,
      "hood": 3806,
      "eal": 3807,
      "ĠArea": 3808,
      "Ġcontinue": 3809,
      "Ġter": 3810,
      "Ġschools": 3811,
      "ifying": 3812,
      "ĠIsland": 3813,
      "Ġfall": 3814,
      "Ġsets": 3815,
      "ederal": 3816,
      "Ġstructure": 3817,
      "Ġopposite": 3818,
      "Ġrandom": 3819,
      "ĠAB": 3820,
      "ĠAlthough": 3821,
      "place": 3822,
      "Ġarm": 3823,
      "gorithm": 3824,
      "ĠLat": 3825,
      "Ġoriginally": 3826,
      "Ġ70": 3827,
      "roy": 3828,
      "berg": 3829,
      "Ġnetwork": 3830,
      "Ġnormal": 3831,
      "Ġrational": 3832,
      "Ġmakes": 3833,
      "ATCH": 3834,
      "imals": 3835,
      "erse": 3836,
      "ĠTrust": 3837,
      "Ġmunicip": 3838,
      "IC": 3839,
      "ĠBC": 3840,
      "come": 3841,
      "arily": 3842,
      "Ġ1970": 3843,
      "set": 3844,
      "ware": 3845,
      "Ġcampaign": 3846,
      "Ġtransport": 3847,
      "tan": 3848,
      "48": 3849,
      "ecially": 3850,
      "Ġlittle": 3851,
      "Ġfight": 3852,
      "Ġsan": 3853,
      "ĠMart": 3854,
      "Ġdiscover": 3855,
      "ĠTech": 3856,
      "ĠJose": 3857,
      "Ġfemale": 3858,
      "itect": 3859,
      "Ġearn": 3860,
      "uture": 3861,
      "Ġfrequency": 3862,
      "Ġstage": 3863,
      "Ġcannot": 3864,
      "Ġsymbol": 3865,
      "As": 3866,
      "Ġreplaced": 3867,
      "washing": 3868,
      "Ġrout": 3869,
      "wer": 3870,
      "ervation": 3871,
      "based": 3872,
      "Ġ187": 3873,
      "Ġrating": 3874,
      "Find": 3875,
      "ĠMag": 3876,
      "ĠMount": 3877,
      "cher": 3878,
      "ĠClub": 3879,
      "Ġphot": 3880,
      "Ġeventually": 3881,
      "Ġparallel": 3882,
      "ĠMathemat": 3883,
      "uit": 3884,
      "ĠRail": 3885,
      "Therefore": 3886,
      "ĠJack": 3887,
      "Ġalgebra": 3888,
      "ĠMain": 3889,
      "Ġboard": 3890,
      "Ġship": 3891,
      "urrent": 3892,
      "rror": 3893,
      "idity": 3894,
      "Ġhard": 3895,
      "ĠRad": 3896,
      "Ġprot": 3897,
      "rompt": 3898,
      "ĠUK": 3899,
      "Ġadding": 3900,
      "rian": 3901,
      "Ġchart": 3902,
      "Ġrepe": 3903,
      "Ġprovides": 3904,
      "ĠBlack": 3905,
      "aker": 3906,
      "istics": 3907,
      "ĠBay": 3908,
      "Ġpark": 3909,
      "echo": 3910,
      "Ġpers": 3911,
      "Ġoccup": 3912,
      "Ġplaced": 3913,
      "do": 3914,
      "Ġdemon": 3915,
      "azine": 3916,
      "ĠVir": 3917,
      "ements": 3918,
      "Ġsaw": 3919,
      "Ġsubsequ": 3920,
      "Ġstri": 3921,
      "ĠAddition": 3922,
      "especially": 3923,
      "Ġfeatured": 3924,
      "Ġliter": 3925,
      "Ġsystems": 3926,
      "Ġbool": 3927,
      "Ġsmaller": 3928,
      "Ġstarting": 3929,
      "ician": 3930,
      "Ġplant": 3931,
      "rown": 3932,
      "ĠĠĠĠĠ": 3933,
      "ĠAngel": 3934,
      "iable": 3935,
      "Ġdegrees": 3936,
      "Ġbooks": 3937,
      "Ġrecommendation": 3938,
      "like": 3939,
      "Ġactual": 3940,
      "Ġstated": 3941,
      "ometry": 3942,
      "Ġdifficult": 3943,
      "Ġcoach": 3944,
      "inese": 3945,
      "Ġfif": 3946,
      "Ġstraight": 3947,
      "ĠâĢ¢": 3948,
      "fessor": 3949,
      "bl": 3950,
      "Ġremaining": 3951,
      "ĠServ": 3952,
      "Ġcollege": 3953,
      "verse": 3954,
      "Ġviol": 3955,
      "âĩĴ": 3956,
      "Ġ1999": 3957,
      "ĠGreat": 3958,
      "Ġoption": 3959,
      "Ġcal": 3960,
      "Ġspent": 3961,
      "ĠWashington": 3962,
      "rab": 3963,
      "Ġreached": 3964,
      "ĠInstitute": 3965,
      "Ġargument": 3966,
      "ades": 3967,
      "Ġteacher": 3968,
      "ĠItal": 3969,
      "}}\\": 3970,
      "Ġcountries": 3971,
      "Ġbound": 3972,
      "ĠFranc": 3973,
      "Ġfamilies": 3974,
      "Ġvia": 3975,
      "Ġlabel": 3976,
      "Ġ...": 3977,
      "ites": 3978,
      "Ġradio": 3979,
      "mar": 3980,
      "agement": 3981,
      "Ġvoid": 3982,
      "ĠIr": 3983,
      "type": 3984,
      "Ã·": 3985,
      "34": 3986,
      "ĠHygiene": 3987,
      "Ġusers": 3988,
      "gin": 3989,
      "orial": 3990,
      "II": 3991,
      "ĠFin": 3992,
      "ils": 3993,
      "otes": 3994,
      "Ġboolean": 3995,
      "anning": 3996,
      "ĠJe": 3997,
      "ida": 3998,
      "pped": 3999,
      "Ġspecified": 4000,
      "ffer": 4001,
      "tem": 4002,
      "Ġoperation": 4003,
      "ext": 4004,
      "ĠThomas": 4005,
      "oper": 4006,
      "ĠSE": 4007,
      "Ġ\\$": 4008,
      "Ġhundred": 4009,
      "ĠNote": 4010,
      "ĠDon": 4011,
      "Ġapproximately": 4012,
      "ĠEth": 4013,
      "inder": 4014,
      "ĠNum": 4015,
      "Ġhandling": 4016,
      "Ġself": 4017,
      "men": 4018,
      "ift": 4019,
      "ructions": 4020,
      "Ġtax": 4021,
      "ĠON": 4022,
      "String": 4023,
      "ani": 4024,
      "}}$": 4025,
      "Ġrelig": 4026,
      "bert": 4027,
      "Ġepisode": 4028,
      "Ġmount": 4029,
      "ett": 4030,
      "Ġconver": 4031,
      "Ġconstit": 4032,
      "rate": 4033,
      "ĠRobert": 4034,
      "Ġbeginning": 4035,
      "Ġawarded": 4036,
      "tic": 4037,
      "Ġtransfer": 4038,
      "Ġhit": 4039,
      "Ġconcern": 4040,
      "Ġpaper": 4041,
      "ĠEducation": 4042,
      "55": 4043,
      "ĠMod": 4044,
      "Ġchoice": 4045,
      "Ġaud": 4046,
      "Ġneeds": 4047,
      "ipl": 4048,
      "Ġresponse": 4049,
      "Ġaltern": 4050,
      "Ġconditional": 4051,
      "ĠAfrican": 4052,
      "cell": 4053,
      "âĢ¦âĢ¦": 4054,
      "sy": 4055,
      "Ġcir": 4056,
      "thing": 4057,
      "ircraft": 4058,
      "ĠUnder": 4059,
      "ĠTur": 4060,
      "hspace": 4061,
      "Ġplat": 4062,
      "ĠAv": 4063,
      "ĠWestern": 4064,
      "mark": 4065,
      "ĠCath": 4066,
      "Ġtransl": 4067,
      "ĠOtherwise": 4068,
      "Ġformat": 4069,
      "ĠAdd": 4070,
      "Ġespecially": 4071,
      "Ġcentre": 4072,
      "ĠCharles": 4073,
      "ĠMet": 4074,
      "Ġtowards": 4075,
      "Ġnight": 4076,
      "anced": 4077,
      "Ġtwice": 4078,
      "Ġrules": 4079,
      "Ġquadratic": 4080,
      "Ġgot": 4081,
      "ession": 4082,
      "Ġrelation": 4083,
      "Ġequivalent": 4084,
      "circ": 4085,
      "ĠAlex": 4086,
      "rought": 4087,
      "bf": 4088,
      "ala": 4089,
      "Ġshape": 4090,
      "cles": 4091,
      "Ġintroduced": 4092,
      "Ġquick": 4093,
      "ĠMont": 4094,
      "ĠSing": 4095,
      "Ġcred": 4096,
      "Ġgender": 4097,
      "Ġcontact": 4098,
      "ERT": 4099,
      "ensity": 4100,
      "ĠJew": 4101,
      "sum": 4102,
      "Ġarray": 4103,
      "ĠMad": 4104,
      "Ġtourn": 4105,
      "âĤ¬": 4106,
      "Ġcomplet": 4107,
      "ĠÂłĠÂłĠÂłĠÂł": 4108,
      "istry": 4109,
      "Ġmus": 4110,
      "Ġjob": 4111,
      "Ġ`\"": 4112,
      "`)": 4113,
      "Ġ75": 4114,
      "Ġsurv": 4115,
      "afe": 4116,
      "Ġpath": 4117,
      "ivity": 4118,
      "Ġmethods": 4119,
      "ĠAcademy": 4120,
      "ĠSociety": 4121,
      "irt": 4122,
      "inct": 4123,
      "Ġir": 4124,
      "Ġdecided": 4125,
      "Ġheart": 4126,
      "Ġlink": 4127,
      "Ġactually": 4128,
      "Ġreb": 4129,
      "Ġface": 4130,
      ")$$": 4131,
      "Ġroute": 4132,
      "func": 4133,
      "ĠMiss": 4134,
      "Ġseconds": 4135,
      "eck": 4136,
      "ĠCD": 4137,
      "ĠSolution": 4138,
      "ĠRust": 4139,
      "ĠGet": 4140,
      "Ġlimit": 4141,
      "Ġcourt": 4142,
      "Ġprior": 4143,
      "Ġ&=": 4144,
      "ĠTV": 4145,
      "Ġlisted": 4146,
      "Ġcensus": 4147,
      "Ġhot": 4148,
      "ĠSecond": 4149,
      "irth": 4150,
      "unn": 4151,
      "Ġconduct": 4152,
      "Ġcout": 4153,
      "Ġ1998": 4154,
      "Ġinequ": 4155,
      "Ġ1960": 4156,
      "oul": 4157,
      "Ġclosed": 4158,
      "rd": 4159,
      "Ġplane": 4160,
      "Ġscored": 4161,
      "ĠWhite": 4162,
      "ĠĠĠĠĊĠĠĠĠĠĠĠ": 4163,
      "Ġthus": 4164,
      "Ġpercentage": 4165,
      "Ġsen": 4166,
      "true": 4167,
      "ollowing": 4168,
      ">(": 4169,
      "icated": 4170,
      "ĠResp": 4171,
      "ething": 4172,
      "ĠChinese": 4173,
      "ĠChristian": 4174,
      "Ġproport": 4175,
      "astern": 4176,
      "Ġanaly": 4177,
      "Ġresponsibility": 4178,
      "Ġcompetition": 4179,
      "Ġprimary": 4180,
      "Hence": 4181,
      "ĠMusic": 4182,
      "ibrary": 4183,
      "Ġexpand": 4184,
      "ĠWil": 4185,
      "\").": 4186,
      "osen": 4187,
      "Ġassist": 4188,
      "){": 4189,
      "Ġkilled": 4190,
      "ĠCREATE": 4191,
      "Ġruns": 4192,
      "Ġdocument": 4193,
      "Ġcat": 4194,
      "Ġnode": 4195,
      "lying": 4196,
      "Ġcommer": 4197,
      "ocal": 4198,
      "leaning": 4199,
      "ĠYear": 4200,
      "Ġcalculated": 4201,
      "Ġchanged": 4202,
      "Ġcop": 4203,
      "Ġcandid": 4204,
      "Ġalmost": 4205,
      "${": 4206,
      "Ġnumerator": 4207,
      "uff": 4208,
      "Ġcapital": 4209,
      "ĠMinister": 4210,
      "anner": 4211,
      "ĠLouis": 4212,
      "Ġtriangles": 4213,
      "Ġcough": 4214,
      "ĠJapanese": 4215,
      "icular": 4216,
      "Given": 4217,
      "vey": 4218,
      "Ġmiddle": 4219,
      "Ġid": 4220,
      "dy": 4221,
      "atre": 4222,
      "Ġsoon": 4223,
      "ĠTex": 4224,
      ")}": 4225,
      "extreme": 4226,
      "Ġdigits": 4227,
      "ushing": 4228,
      "ĠCanadian": 4229,
      "Ġcivil": 4230,
      "Ġsometimes": 4231,
      "Ġactivity": 4232,
      "ĠArg": 4233,
      "vis": 4234,
      "zer": 4235,
      "osing": 4236,
      "`);": 4237,
      "imeter": 4238,
      "enc": 4239,
      "ka": 4240,
      "board": 4241,
      "ypher": 4242,
      "ĊĠĠĊĠ": 4243,
      "ili": 4244,
      "transparency": 4245,
      "ĠSmith": 4246,
      "ĠMy": 4247,
      "ĠDire": 4248,
      "ĠLu": 4249,
      "opping": 4250,
      "ĠScott": 4251,
      "ders": 4252,
      "Ġintegers": 4253,
      "95": 4254,
      "Ġpen": 4255,
      "ĠSal": 4256,
      "Re": 4257,
      "Ġ%": 4258,
      "Ġcontent": 4259,
      "ĠGrand": 4260,
      "38": 4261,
      "ĊĊĠĠĠĠĠĠĠĠĠĠĠ": 4262,
      "ĠDemoc": 4263,
      "traction": 4264,
      "overs": 4265,
      "down": 4266,
      "ĠMac": 4267,
      "che": 4268,
      "bour": 4269,
      "Ġinvestig": 4270,
      "ĠItalian": 4271,
      "enth": 4272,
      "Ġut": 4273,
      "ĠRussian": 4274,
      "':": 4275,
      "rag": 4276,
      "Ġriver": 4277,
      "Ġbene": 4278,
      "Ġappears": 4279,
      "37": 4280,
      "cm": 4281,
      "imin": 4282,
      "QL": 4283,
      "Ġ1996": 4284,
      "cont": 4285,
      "ees": 4286,
      "ĠJulia": 4287,
      "za": 4288,
      "ĠTherefore": 4289,
      "peed": 4290,
      "GE": 4291,
      "Ġresulting": 4292,
      "Do": 4293,
      "result": 4294,
      "rain": 4295,
      "Ġveh": 4296,
      "Ġactive": 4297,
      "Ġsecurity": 4298,
      "Ġhyp": 4299,
      "Ġgirl": 4300,
      "ography": 4301,
      "check": 4302,
      "ows": 4303,
      "Ġpreviously": 4304,
      "Ġprotect": 4305,
      "ĠLake": 4306,
      "Ġcollection": 4307,
      "Ġevaluate": 4308,
      "Ġsoap": 4309,
      "uan": 4310,
      "Sp": 4311,
      "Ġexpected": 4312,
      "Ġallows": 4313,
      "Ġcompan": 4314,
      "Ġpolice": 4315,
      "Ġolder": 4316,
      "Ġweather": 4317,
      "Ġalgorithm": 4318,
      "^{\\": 4319,
      "['": 4320,
      "ĠMa": 4321,
      "ĠGreen": 4322,
      "Ġgrant": 4323,
      "annel": 4324,
      "enses": 4325,
      "idents": 4326,
      "ĠOper": 4327,
      "Ġexperience": 4328,
      "eries": 4329,
      "Ġobjects": 4330,
      "ĠDel": 4331,
      "Ġonline": 4332,
      "IS": 4333,
      "AN": 4334,
      "Ġactivities": 4335,
      "Ġsil": 4336,
      "Ġrights": 4337,
      "Ġroots": 4338,
      "wash": 4339,
      "Ġgenerally": 4340,
      "Ġroom": 4341,
      "hi": 4342,
      "Ġmeasures": 4343,
      "airs": 4344,
      "Ġseparate": 4345,
      "Ġneigh": 4346,
      "Ġaircraft": 4347,
      "ĠGold": 4348,
      "Ġincreased": 4349,
      "amples": 4350,
      "iece": 4351,
      "Ġcoe": 4352,
      "ĠVict": 4353,
      "65": 4354,
      "road": 4355,
      "ita": 4356,
      "ĠSuper": 4357,
      "igon": 4358,
      "ĠSpanish": 4359,
      "ecause": 4360,
      "Ġ1997": 4361,
      "=-": 4362,
      "olf": 4363,
      "Ġ->": 4364,
      "imated": 4365,
      "Ġmiles": 4366,
      "Ġfuture": 4367,
      "Ġmouth": 4368,
      "Ġfil": 4369,
      "When": 4370,
      "quette": 4371,
      "Ġcritic": 4372,
      "Ġgold": 4373,
      "Ġwinning": 4374,
      "Ġnose": 4375,
      "inf": 4376,
      "Ġinstit": 4377,
      "Ġtransformed": 4378,
      "Ġstrateg": 4379,
      "Ġregarding": 4380,
      "Ġimmediately": 4381,
      "You": 4382,
      "ĠDay": 4383,
      "Ġarchitect": 4384,
      "Ġderivative": 4385,
      "Ġattended": 4386,
      "49": 4387,
      "()`": 4388,
      "range": 4389,
      "Ġtreatment": 4390,
      "room": 4391,
      "ground": 4392,
      "ĠJust": 4393,
      "Use": 4394,
      "Ġreve": 4395,
      "usp": 4396,
      "Ġbrought": 4397,
      "ĠPenn": 4398,
      "asket": 4399,
      "ĠIN": 4400,
      "mon": 4401,
      "}=\\": 4402,
      "ĠHam": 4403,
      "ols": 4404,
      "ĠAfrica": 4405,
      "onents": 4406,
      "quare": 4407,
      "avas": 4408,
      "Ġtheorem": 4409,
      "aging": 4410,
      "Ġvisit": 4411,
      "olk": 4412,
      "ĠMichael": 4413,
      "stitution": 4414,
      "ĠReturn": 4415,
      "Ġloop": 4416,
      "Ġbroadcast": 4417,
      "ĠOf": 4418,
      "Ġearlier": 4419,
      "ano": 4420,
      "Ġidea": 4421,
      "Ġ64": 4422,
      "ishop": 4423,
      "isions": 4424,
      "ectors": 4425,
      "ĠPri": 4426,
      "aval": 4427,
      "where": 4428,
      "://": 4429,
      "Ġproced": 4430,
      "ams": 4431,
      "aled": 4432,
      "UT": 4433,
      "hab": 4434,
      "Ġinstance": 4435,
      "alled": 4436,
      "Ġplaces": 4437,
      "Ġintern": 4438,
      "Ġrecords": 4439,
      "Wh": 4440,
      "ĠVirgin": 4441,
      "Ġdemonstr": 4442,
      "ena": 4443,
      "des": 4444,
      "Ġfarm": 4445,
      "Ġestablish": 4446,
      "Ġshare": 4447,
      "Ġincreasing": 4448,
      "Ġcontain": 4449,
      "pted": 4450,
      "Ġfinding": 4451,
      "Since": 4452,
      "ĠSafety": 4453,
      "Ġ185": 4454,
      "care": 4455,
      "ĠHenry": 4456,
      "Ġcard": 4457,
      "ĠProg": 4458,
      "Ġtouch": 4459,
      "Ġnodes": 4460,
      "ĠTexas": 4461,
      "reland": 4462,
      "venue": 4463,
      "ĠFollowing": 4464,
      "Ġindustry": 4465,
      "Ġshared": 4466,
      "Per": 4467,
      "Ġ1995": 4468,
      "Error": 4469,
      "Ġtherefore": 4470,
      "Ġasked": 4471,
      "ĠMost": 4472,
      "Ġtang": 4473,
      "Sol": 4474,
      "ĠPrompt": 4475,
      "Ġmut": 4476,
      "ww": 4477,
      "agon": 4478,
      "Ġotherwise": 4479,
      "Ġmeaning": 4480,
      "Ġfilms": 4481,
      "chan": 4482,
      "Ġgrade": 4483,
      "neezing": 4484,
      "44": 4485,
      "const": 4486,
      "Ġbecomes": 4487,
      "ĠMany": 4488,
      "Ġexhib": 4489,
      "+\\": 4490,
      "ĠDan": 4491,
      "ao": 4492,
      "with": 4493,
      "axis": 4494,
      "Ġjud": 4495,
      "Trans": 4496,
      "IG": 4497,
      "Ġsex": 4498,
      "Ġ2020": 4499,
      "Ġsomething": 4500,
      "Ar": 4501,
      "ĠFilm": 4502,
      "Ġreplace": 4503,
      "ension": 4504,
      "Ġlonger": 4505,
      "fin": 4506,
      "ufact": 4507,
      "Ġremains": 4508,
      "iter": 4509,
      "Ġissue": 4510,
      "ĠSur": 4511,
      "pend": 4512,
      "[\"": 4513,
      "Ġobser": 4514,
      "sql": 4515,
      "By": 4516,
      "Ġspread": 4517,
      "ĠEach": 4518,
      "ĠParis": 4519,
      "ona": 4520,
      "Ġeasily": 4521,
      "ĠHill": 4522,
      "Ġ48": 4523,
      "Ġmovement": 4524,
      "bin": 4525,
      "Ġones": 4526,
      "ĠTor": 4527,
      "Ġlies": 4528,
      "Ġstudio": 4529,
      "Ġgoals": 4530,
      "Ġ1994": 4531,
      "Ġexists": 4532,
      "Ġscient": 4533,
      "ancial": 4534,
      "Ġteeth": 4535,
      "vin": 4536,
      "ĠMo": 4537,
      "Ġq": 4538,
      "ĠïĢ": 4539,
      "Ġ1992": 4540,
      "idae": 4541,
      "Ġassum": 4542,
      "Ġbuildings": 4543,
      "iences": 4544,
      "shire": 4545,
      "Ġinputs": 4546,
      "ĠMuseum": 4547,
      "Ġnorthern": 4548,
      "ĠFra": 4549,
      "Ġarticle": 4550,
      "ledge": 4551,
      "Ġdise": 4552,
      "ĠFrank": 4553,
      "Ġpoor": 4554,
      "67": 4555,
      "embly": 4556,
      "Ġannual": 4557,
      "ortun": 4558,
      "ĠInt": 4559,
      "arp": 4560,
      "ĠBased": 4561,
      "Right": 4562,
      "acing": 4563,
      "uting": 4564,
      "ĠLeg": 4565,
      "ĠArch": 4566,
      "chol": 4567,
      "ĠPlease": 4568,
      "Ġdu": 4569,
      "Ġindividuals": 4570,
      "Med": 4571,
      "Ġop": 4572,
      "Ġroutine": 4573,
      "gra": 4574,
      "ĠThus": 4575,
      "vec": 4576,
      "ĠFore": 4577,
      "ĠBest": 4578,
      "=$": 4579,
      "31": 4580,
      "Ġmanufact": 4581,
      "Ġenergy": 4582,
      "avascript": 4583,
      "ĠPe": 4584,
      "Ġtournament": 4585,
      "ota": 4586,
      "Ġavoid": 4587,
      "Here": 4588,
      "ĠBoard": 4589,
      "Ġended": 4590,
      "ousand": 4591,
      "Ġtrain": 4592,
      "hedul": 4593,
      "]->(": 4594,
      "Ġplatform": 4595,
      "unch": 4596,
      "ĠBY": 4597,
      "Ġsouthern": 4598,
      "atively": 4599,
      "Ġforms": 4600,
      "Ġlikely": 4601,
      "anned": 4602,
      "ĠPeter": 4603,
      "Ġnine": 4604,
      "Ġthreshold": 4605,
      "ria": 4606,
      "Ġwood": 4607,
      "!\"": 4608,
      "la": 4609,
      "Ġobs": 4610,
      "ING": 4611,
      "Ġodd": 4612,
      "ampoo": 4613,
      "Ġdecre": 4614,
      "Ġmixed": 4615,
      "Ġsolving": 4616,
      "ĠBas": 4617,
      "ME": 4618,
      "Ġenvironment": 4619,
      "erve": 4620,
      "consent": 4621,
      "arget": 4622,
      "selves": 4623,
      "ĠFootball": 4624,
      "weight": 4625,
      "ĠCypher": 4626,
      "Ġplays": 4627,
      "ĠCatholic": 4628,
      "Ġsett": 4629,
      "izont": 4630,
      "Ġbring": 4631,
      "lor": 4632,
      "rative": 4633,
      "ĠSocial": 4634,
      "Ġsummer": 4635,
      "Ġgun": 4636,
      "requency": 4637,
      "ool": 4638,
      "ilater": 4639,
      "39": 4640,
      "uz": 4641,
      "Ġbehav": 4642,
      "EXT": 4643,
      "Ġexpressions": 4644,
      "Ġcause": 4645,
      "85": 4646,
      "Ġchampionship": 4647,
      "Ġthought": 4648,
      "Ġrequirements": 4649,
      "swers": 4650,
      "Ġexperts": 4651,
      "eds": 4652,
      "Ġcounty": 4653,
      "cal": 4654,
      "alid": 4655,
      "Ġinterval": 4656,
      "oke": 4657,
      "pendicular": 4658,
      "edy": 4659,
      "ĠRichard": 4660,
      "ĠÃ·": 4661,
      "Ġcoast": 4662,
      "Ġselect": 4663,
      "Ġesc": 4664,
      "ĠRev": 4665,
      "AP": 4666,
      "Ġking": 4667,
      "Ġwide": 4668,
      "Ġsource": 4669,
      "Ġdestroy": 4670,
      "Ġlack": 4671,
      "ĠCommission": 4672,
      "ĠBr": 4673,
      "$$.": 4674,
      "ipping": 4675,
      "ĠSov": 4676,
      "porary": 4677,
      "Ġmention": 4678,
      "import": 4679,
      "Ġrailway": 4680,
      "Ġusage": 4681,
      "Ġarrang": 4682,
      "gy": 4683,
      "ĠUN": 4684,
      "Ġanc": 4685,
      "Ġattention": 4686,
      "Ġobtained": 4687,
      "Ġdefeated": 4688,
      "ĠBen": 4689,
      "Ġraised": 4690,
      "ether": 4691,
      "Ġdirectly": 4692,
      "ĠVictor": 4693,
      "ĠKingdom": 4694,
      "mod": 4695,
      "ĠKore": 4696,
      "ĠOver": 4697,
      "book": 4698,
      "Ġtraditional": 4699,
      "ĠSolve": 4700,
      "ĠRem": 4701,
      "otion": 4702,
      "enced": 4703,
      "dule": 4704,
      "Ġgrand": 4705,
      "\"\"": 4706,
      "unched": 4707,
      "Ġisland": 4708,
      "Ġowned": 4709,
      "Ġfalls": 4710,
      "Ġpractices": 4711,
      "Ġunknown": 4712,
      "ĠCommun": 4713,
      "lement": 4714,
      "Ġcolor": 4715,
      "Ġran": 4716,
      "ĠBet": 4717,
      "Ġcollect": 4718,
      "Ġordered": 4719,
      "Ġanti": 4720,
      "viation": 4721,
      "ĠRock": 4722,
      "rael": 4723,
      "ĠMore": 4724,
      "Ġrectangle": 4725,
      "Ġdental": 4726,
      "Ġscience": 4727,
      "lant": 4728,
      "Ġnoted": 4729,
      "icago": 4730,
      "ĠMel": 4731,
      "Ġimm": 4732,
      "Ġparameter": 4733,
      "Ġconsists": 4734,
      "unk": 4735,
      "ously": 4736,
      "oral": 4737,
      "see": 4738,
      "Ġpick": 4739,
      "Ġcompl": 4740,
      "Ġcharacters": 4741,
      "Ġstudies": 4742,
      "Ġbelong": 4743,
      "ĠMus": 4744,
      "well": 4745,
      "47": 4746,
      "ĠRecords": 4747,
      "ĠAlso": 4748,
      "Ġjournal": 4749,
      "\\;": 4750,
      "istan": 4751,
      "ĠSant": 4752,
      "iation": 4753,
      "count": 4754,
      "Ġrelationships": 4755,
      "rack": 4756,
      "ech": 4757,
      "Ġsyn": 4758,
      "Ġrecent": 4759,
      "Rec": 4760,
      "Ġsoft": 4761,
      "bit": 4762,
      "Ġplus": 4763,
      "[]": 4764,
      "ĠCommon": 4765,
      "}-": 4766,
      "ĠMathematics": 4767,
      "ĠCarol": 4768,
      "ĠâĢ¦": 4769,
      "dry": 4770,
      "ĠCamp": 4771,
      "Ġdro": 4772,
      "Ġdoctor": 4773,
      "ĠPlay": 4774,
      "Ġemer": 4775,
      "Ġminor": 4776,
      "ipal": 4777,
      "ĠSQL": 4778,
      "User": 4779,
      "anic": 4780,
      "And": 4781,
      "oistur": 4782,
      "Ġsurround": 4783,
      "Ġcriteria": 4784,
      "ĠDes": 4785,
      "Ġstudied": 4786,
      "heast": 4787,
      "Ġpatients": 4788,
      "Ġpi": 4789,
      "ĠVol": 4790,
      "retary": 4791,
      "Ġpack": 4792,
      "thlet": 4793,
      "ĠAC": 4794,
      "ĠNeo": 4795,
      "ĠAlgebra": 4796,
      "Ġwhom": 4797,
      "Ġinverse": 4798,
      "ĠABC": 4799,
      "Ġcommercial": 4800,
      "anger": 4801,
      "roll": 4802,
      "ĠPrivacy": 4803,
      "Ġdetails": 4804,
      "att": 4805,
      "Ġcompanies": 4806,
      "ura": 4807,
      "ĠSwed": 4808,
      "tex": 4809,
      "Ġstay": 4810,
      "ini": 4811,
      "rial": 4812,
      "icro": 4813,
      "42": 4814,
      "EY": 4815,
      "fmt": 4816,
      "asion": 4817,
      "Ġ1993": 4818,
      "ĠLos": 4819,
      "ĠHealth": 4820,
      "Ġfinally": 4821,
      "Ġ1991": 4822,
      "su": 4823,
      "reliability": 4824,
      "Ġkind": 4825,
      "da": 4826,
      "Int": 4827,
      "Ġded": 4828,
      "ipment": 4829,
      "Ġrot": 4830,
      "ĠPublic": 4831,
      "Ġmach": 4832,
      "Ġ${\\": 4833,
      "ĊĠĠĠĠĠĠ": 4834,
      "pose": 4835,
      "Ġchall": 4836,
      "writ": 4837,
      "Ġremainder": 4838,
      "ĠGreek": 4839,
      "Ġnomin": 4840,
      "Ġwalk": 4841,
      "Ġopening": 4842,
      "Fl": 4843,
      "Ġmoving": 4844,
      "ĠShow": 4845,
      "CO": 4846,
      "ĠIreland": 4847,
      "Ġartist": 4848,
      "isf": 4849,
      "Ġdescription": 4850,
      "Ġess": 4851,
      "Ġmanagement": 4852,
      "Ġbur": 4853,
      "ĠOff": 4854,
      "Ġpict": 4855,
      "ada": 4856,
      "Ġwebs": 4857,
      "usband": 4858,
      "tiquette": 4859,
      "ĠCommittee": 4860,
      "which": 4861,
      "ĠFlor": 4862,
      "Dry": 4863,
      "ĠZeal": 4864,
      "Ġsaying": 4865,
      "owers": 4866,
      "ðĿĳ": 4867,
      "Ġmagn": 4868,
      "ĠWrite": 4869,
      "rey": 4870,
      "pes": 4871,
      "ĠDen": 4872,
      "ĠAP": 4873,
      "Ġbott": 4874,
      "enty": 4875,
      "change": 4876,
      "Ġunique": 4877,
      "ĠFound": 4878,
      "Ġleaving": 4879,
      "ĠReliability": 4880,
      "pha": 4881,
      "oura": 4882,
      "ĠTEXT": 4883,
      "Ġdiam": 4884,
      "asketball": 4885,
      "Ġeye": 4886,
      "Ġ1950": 4887,
      "Rightarrow": 4888,
      "Ġseat": 4889,
      "ĠGovernment": 4890,
      "ĠTest": 4891,
      "URN": 4892,
      "ingu": 4893,
      "Ġextra": 4894,
      "ĠGod": 4895,
      "lam": 4896,
      "ĠTheorem": 4897,
      "ĠConsent": 4898,
      "Ġhour": 4899,
      "Ġcalculates": 4900,
      "Ġfill": 4901,
      "Ġarmy": 4902,
      "ĠZealand": 4903,
      "very": 4904,
      "esson": 4905,
      "Ġevidence": 4906,
      "ĠSet": 4907,
      "oub": 4908,
      "Id": 4909,
      "bash": 4910,
      "ĠOb": 4911,
      "Ġincorpor": 4912,
      "98": 4913,
      "ican": 4914,
      "`/": 4915,
      "unt": 4916,
      "Ġstaff": 4917,
      "ĠNumbers": 4918,
      "];": 4919,
      "ĠForce": 4920,
      "under": 4921,
      "Ġthings": 4922,
      "Ġscreen": 4923,
      "va": 4924,
      "Ġsomeone": 4925,
      "Ġcarry": 4926,
      "Ġthemselves": 4927,
      "Cont": 4928,
      "ĠBur": 4929,
      "inomial": 4930,
      "ÂĿÂĳÂ": 4931,
      "ira": 4932,
      "Ġsuffer": 4933,
      "Ġimage": 4934,
      "Ġcele": 4935,
      "Yes": 4936,
      "Ġdomain": 4937,
      "Ġdefinition": 4938,
      "ĠMass": 4939,
      "Ġvertical": 4940,
      "Sub": 4941,
      "Ġtheory": 4942,
      "Ġnumerous": 4943,
      "ĠTransparency": 4944,
      "Ġvar": 4945,
      "ĠSolutions": 4946,
      "ĠResponsibility": 4947,
      ")+": 4948,
      "ĠAngeles": 4949,
      "Ġfeel": 4950,
      "Ġsusp": 4951,
      "List": 4952,
      "Ġcurve": 4953,
      "ĠSoviet": 4954,
      "Ġleader": 4955,
      "Ġquarter": 4956,
      "ĠRuby": 4957,
      "Ġchosen": 4958,
      "ĠFestival": 4959,
      "ĠPrint": 4960,
      "earch": 4961,
      "ĠTypeScript": 4962,
      "adium": 4963,
      "96": 4964,
      "rog": 4965,
      "Ġwhy": 4966,
      "Ġmale": 4967,
      "ĠOR": 4968,
      "enge": 4969,
      "ĠTop": 4970,
      "`/`": 4971,
      "ait": 4972,
      "Ġunderstanding": 4973,
      "Ġprison": 4974,
      "ĠPac": 4975,
      "Ġinsp": 4976,
      "Ġsure": 4977,
      "oma": 4978,
      "Ġ];": 4979,
      "ĠDu": 4980,
      "Ġado": 4981,
      "Ġmedium": 4982,
      "ĠCast": 4983,
      "Please": 4984,
      "mier": 4985,
      "oes": 4986,
      "Ġcovered": 4987,
      "Ġâī": 4988,
      "Ġmagazine": 4989,
      "ĠEthics": 4990,
      "Ġaddress": 4991,
      "Ġdetermines": 4992,
      "ĠCongress": 4993,
      "Ġweeks": 4994,
      "Ġletter": 4995,
      "ĠBias": 4996,
      "ylvan": 4997,
      "New": 4998,
      "Ġfail": 4999,
      "Ġlove": 5000,
      "itar": 5001,
      "comes": 5002,
      "ĠIll": 5003,
      "Ġcomes": 5004,
      "ĠIsrael": 5005,
      "key": 5006,
      "angular": 5007,
      "Ġlived": 5008,
      "Ġpressure": 5009,
      "ĠTH": 5010,
      "Ġcaused": 5011,
      "Ġbattle": 5012,
      "fill": 5013,
      "Ġcommission": 5014,
      "oice": 5015,
      "ĠMexico": 5016,
      "ĠMr": 5017,
      "Ġsettle": 5018,
      "Ġlimited": 5019,
      "Ġhusband": 5020,
      "Ġsenior": 5021,
      "ĠHel": 5022,
      "ĠBank": 5023,
      "Ġnewsp": 5024,
      "ĠOrder": 5025,
      "Ġlay": 5026,
      "ĠHistor": 5027,
      "vement": 5028,
      "Ġcorn": 5029,
      "FL": 5030,
      "Ġlaunched": 5031,
      "Ġplot": 5032,
      "bre": 5033,
      "ĠScience": 5034,
      "Ġpairs": 5035,
      "Ġreferred": 5036,
      "EFA": 5037,
      "ĠSELECT": 5038,
      "Ġvariety": 5039,
      "Ġfrequently": 5040,
      "Ġdivisible": 5041,
      "ux": 5042,
      "ĠMaths": 5043,
      "ĠJo": 5044,
      "ĠWomen": 5045,
      "ario": 5046,
      "Ġscores": 5047,
      "Is": 5048,
      "ĠStand": 5049,
      "Ġinitially": 5050,
      "Ġmathematical": 5051,
      "Ġflossing": 5052,
      "aded": 5053,
      "Ġstock": 5054,
      "ĠâĢĶ": 5055,
      "{(": 5056,
      "âĢľ": 5057,
      "Ġgetting": 5058,
      "Ġinstructions": 5059,
      "izontal": 5060,
      "Ġyet": 5061,
      "Ġappearance": 5062,
      "ĠArts": 5063,
      "Ġwoman": 5064,
      "Ġacadem": 5065,
      "\"`": 5066,
      "ounds": 5067,
      "ĠConst": 5068,
      "Ġleave": 5069,
      "66": 5070,
      "ĠRob": 5071,
      "value": 5072,
      "ĠId": 5073,
      "Ġdram": 5074,
      "wide": 5075,
      "Check": 5076,
      "ractice": 5077,
      "irty": 5078,
      "rust": 5079,
      "ĠSir": 5080,
      "Ġblood": 5081,
      "Ġidentity": 5082,
      "Ġparticularly": 5083,
      "Ġterrit": 5084,
      "ylvania": 5085,
      "ĠChicago": 5086,
      "Ġ1989": 5087,
      "utch": 5088,
      "rical": 5089,
      "ĠSaint": 5090,
      "Ġblue": 5091,
      "Ġ!=": 5092,
      "Ġ$(": 5093,
      "ĠBook": 5094,
      "Ġentry": 5095,
      "Ġreach": 5096,
      "Ġoil": 5097,
      "ĠSpec": 5098,
      "Ġmanager": 5099,
      "Ġroll": 5100,
      "bon": 5101,
      "Ġsea": 5102,
      "Total": 5103,
      "ros": 5104,
      "hester": 5105,
      "ĠTer": 5106,
      "Ġprograms": 5107,
      "include": 5108,
      "Ġgoes": 5109,
      "IL": 5110,
      "ĠBoth": 5111,
      "ĠPR": 5112,
      "Ġmultiplying": 5113,
      "ĠJavaScript": 5114,
      "Ġconvert": 5115,
      "Ġbirth": 5116,
      "Ġtree": 5117,
      "500": 5118,
      "rief": 5119,
      "Ġinform": 5120,
      "izes": 5121,
      "Of": 5122,
      "(\"\\": 5123,
      "ĠScot": 5124,
      "UM": 5125,
      "âĪ´": 5126,
      "IST": 5127,
      "Ġapplied": 5128,
      "ports": 5129,
      "rams": 5130,
      "Ġmode": 5131,
      "ugar": 5132,
      "ĠSummer": 5133,
      "Ġgets": 5134,
      "Ġmajority": 5135,
      "Ġfloss": 5136,
      "ulate": 5137,
      "05": 5138,
      "vention": 5139,
      "num": 5140,
      "ithmetic": 5141,
      "Ġgrowth": 5142,
      "],": 5143,
      "ĠOlympics": 5144,
      ")-[:": 5145,
      "ĠItaly": 5146,
      "Ġ500": 5147,
      "oles": 5148,
      "Ġbecoming": 5149,
      "Ġscale": 5150,
      "ste": 5151,
      "ĠParliament": 5152,
      "Ġsal": 5153,
      "Ġsplit": 5154,
      "Ġcustomer": 5155,
      "alities": 5156,
      "].": 5157,
      "Ġsituation": 5158,
      "Ġconsum": 5159,
      "ras": 5160,
      "igan": 5161,
      "ĠBrown": 5162,
      "Wash": 5163,
      "ĠFre": 5164,
      "ĠGeorg": 5165,
      "Ġthrow": 5166,
      "Ġcircum": 5167,
      "eces": 5168,
      "Ġsupported": 5169,
      "Ġchoose": 5170,
      "li": 5171,
      "Ġupper": 5172,
      "Ġearned": 5173,
      "ilateral": 5174,
      "ĠNavy": 5175,
      "Ġpage": 5176,
      "Ġsays": 5177,
      "Ġeasy": 5178,
      "Ġresponsible": 5179,
      "US": 5180,
      "ĠVirginia": 5181,
      "Ġtoilet": 5182,
      "Ġsegment": 5183,
      "Ġperpendicular": 5184,
      "ĠRead": 5185,
      "Ġbrand": 5186,
      "46": 5187,
      "ĠChampionships": 5188,
      "Ġ\"\"\"": 5189,
      "Ġtechniques": 5190,
      "Ġmathematics": 5191,
      "Ġthousand": 5192,
      "Ġmer": 5193,
      "ĠTheir": 5194,
      "idel": 5195,
      "Ġlearning": 5196,
      "Ġpresented": 5197,
      "ception": 5198,
      "eloc": 5199,
      "Ġequals": 5200,
      "cular": 5201,
      "ĠIF": 5202,
      "Ġpolicy": 5203,
      "Ġ1988": 5204,
      "pass": 5205,
      "Ġmeeting": 5206,
      "mm": 5207,
      "apes": 5208,
      "exp": 5209,
      "df": 5210,
      "arriage": 5211,
      "ĠKar": 5212,
      "Com": 5213,
      "ĠTem": 5214,
      "OW": 5215,
      "Ġwriter": 5216,
      "ĠOld": 5217,
      "ĠTable": 5218,
      "Ġà¤": 5219,
      "Clean": 5220,
      "Ġ37": 5221,
      "Ġ42": 5222,
      "Ġfailed": 5223,
      "itch": 5224,
      "Ġwestern": 5225,
      "Ġnews": 5226,
      "ecting": 5227,
      "ĠLater": 5228,
      "ban": 5229,
      "ĠTime": 5230,
      "ĠMem": 5231,
      "Ġseek": 5232,
      "Ġfloat": 5233,
      "ĠHot": 5234,
      "intercept": 5235,
      "Ind": 5236,
      "Ġmostly": 5237,
      "ĠQuery": 5238,
      "Or": 5239,
      "Ġexactly": 5240,
      "Ġproduce": 5241,
      "Pl": 5242,
      "ĠGames": 5243,
      "Ġinterp": 5244,
      "Ġquickly": 5245,
      "acity": 5246,
      "Ġschol": 5247,
      "AD": 5248,
      "ĠEquations": 5249,
      "Ġcombination": 5250,
      "Ġhouseholds": 5251,
      "ken": 5252,
      "itted": 5253,
      "Ġcategory": 5254,
      "ado": 5255,
      "ĠÐ": 5256,
      "Ġmur": 5257,
      "isher": 5258,
      "Ġforeign": 5259,
      "rim": 5260,
      "patient": 5261,
      "arters": 5262,
      "Ġbias": 5263,
      "teen": 5264,
      "sylvania": 5265,
      "ĠGraph": 5266,
      "ulations": 5267,
      "Ġendl": 5268,
      "ĠProvince": 5269,
      "Ġsort": 5270,
      "Ġhelped": 5271,
      "light": 5272,
      "racy": 5273,
      "Ġartists": 5274,
      ":\")": 5275,
      "Ġcell": 5276,
      "ĠMill": 5277,
      "isation": 5278,
      "Ġmusical": 5279,
      "Ġmission": 5280,
      "unior": 5281,
      "ĠStat": 5282,
      "Ġconsec": 5283,
      "Ġvictory": 5284,
      "ĠRs": 5285,
      "}.": 5286,
      "thes": 5287,
      "class": 5288,
      "div": 5289,
      "Ġexisting": 5290,
      "Ġperfect": 5291,
      "Eng": 5292,
      "ĠEmp": 5293,
      "Ġ(!": 5294,
      "Ġfinancial": 5295,
      "ockey": 5296,
      "ĠInit": 5297,
      "));": 5298,
      "olute": 5299,
      "Ġtrade": 5300,
      "Ġ34": 5301,
      "Ġbal": 5302,
      "asc": 5303,
      "ds": 5304,
      "arden": 5305,
      "elt": 5306,
      "ricult": 5307,
      "ĠGrade": 5308,
      "oor": 5309,
      "Ġfamous": 5310,
      "Ġeconomic": 5311,
      "abric": 5312,
      "Ġcoordinates": 5313,
      "iance": 5314,
      "88": 5315,
      "Ġborder": 5316,
      "igure": 5317,
      "Ġdensity": 5318,
      "Ġindicate": 5319,
      "Ġtalk": 5320,
      "Ġtells": 5321,
      "ĠEX": 5322,
      "Ġ44": 5323,
      "Ġlegal": 5324,
      "ĠIS": 5325,
      "';": 5326,
      "sym": 5327,
      "Americ": 5328,
      "Ġlooking": 5329,
      "Ġdoing": 5330,
      "Ġinterview": 5331,
      "Ġsens": 5332,
      "TV": 5333,
      "Ġforced": 5334,
      "Ġflag": 5335,
      "ĠĊĠĠĠĠĠĠĠĠĠĠĠĠĠĠĠ": 5336,
      "ĠFlorida": 5337,
      "ulated": 5338,
      "âĪļ": 5339,
      "bed": 5340,
      "Ġuniversity": 5341,
      "Ġkm": 5342,
      "step": 5343,
      "Ġfocus": 5344,
      "reng": 5345,
      "Ġretired": 5346,
      "Ġrequirement": 5347,
      "Ġregularly": 5348,
      "Note": 5349,
      "Ġful": 5350,
      "ĠLiber": 5351,
      "Ġsinger": 5352,
      "ĠPennsylvania": 5353,
      "ansion": 5354,
      "Ġhabits": 5355,
      "ying": 5356,
      "ulia": 5357,
      "Ġfemales": 5358,
      "zil": 5359,
      "Ġknowledge": 5360,
      "ĠRussia": 5361,
      "'.": 5362,
      "Ġcompeted": 5363,
      "ĠOl": 5364,
      "iring": 5365,
      "Ġthreat": 5366,
      "Ġparents": 5367,
      "onent": 5368,
      "OL": 5369,
      "Ġcritical": 5370,
      "ĠLevel": 5371,
      "Ġserving": 5372,
      "from": 5373,
      "Ġoffered": 5374,
      "Ġconclud": 5375,
      "Ġfigures": 5376,
      "Ġcarried": 5377,
      "public": 5378,
      "ĠMer": 5379,
      "ĠTechn": 5380,
      "ĠNorthern": 5381,
      "Ġedition": 5382,
      "ĠValue": 5383,
      "ĠValley": 5384,
      "Ġjoin": 5385,
      "Ġoptions": 5386,
      "ĠJoseph": 5387,
      "Ġshot": 5388,
      "}$.": 5389,
      "Ġtangent": 5390,
      "oday": 5391,
      "Ġoperated": 5392,
      "76": 5393,
      "Ġcollabor": 5394,
      "ĠKEY": 5395,
      "iii": 5396,
      "Ġsuggest": 5397,
      "ĠEr": 5398,
      "ĠWales": 5399,
      "Ġ33": 5400,
      "Ġ1987": 5401,
      "sych": 5402,
      "Ġcities": 5403,
      "ĊĠĠĠĠĠĠĠĠĊĠĠĠ": 5404,
      "OIN": 5405,
      "Ġconne": 5406,
      "Count": 5407,
      "coh": 5408,
      "Ġdistinct": 5409,
      "ganization": 5410,
      "imming": 5411,
      "Ġchem": 5412,
      "ĠPerform": 5413,
      "switch": 5414,
      "ĠAnother": 5415,
      "Ġtarget": 5416,
      "78": 5417,
      "Ġsuit": 5418,
      "Ġaxis": 5419,
      "elocity": 5420,
      "EL": 5421,
      "Ġdepart": 5422,
      "Ġexpressed": 5423,
      "ny": 5424,
      "icit": 5425,
      "return": 5426,
      "Ġfirm": 5427,
      "Ġgreen": 5428,
      "Ġillust": 5429,
      "ky": 5430,
      "uries": 5431,
      "Ġexplain": 5432,
      "Ġcomposed": 5433,
      "Ġsports": 5434,
      "iple": 5435,
      "ĠOpen": 5436,
      "Ġbasis": 5437,
      "Ġwebsite": 5438,
      "ĠRou": 5439,
      "Ġfriends": 5440,
      "house": 5441,
      "hol": 5442,
      "ups": 5443,
      "Ġinstr": 5444,
      "Sim": 5445,
      "ĠÂ£": 5446,
      "ults": 5447,
      "ĠService": 5448,
      "Ġdetermined": 5449,
      "');": 5450,
      "ruit": 5451,
      "alculate": 5452,
      "Ġcharg": 5453,
      "Ġpiece": 5454,
      "fn": 5455,
      "Ġeditor": 5456,
      "ercises": 5457,
      "ËĨ": 5458,
      "Ġcounter": 5459,
      "ĠChe": 5460,
      "Read": 5461,
      "Ġcoughing": 5462,
      "Ġ1986": 5463,
      "item": 5464,
      "eration": 5465,
      "rast": 5466,
      "Ġcleanliness": 5467,
      "elif": 5468,
      "ĠMATCH": 5469,
      "bability": 5470,
      "ĠPost": 5471,
      "Ġnature": 5472,
      "ĠPoint": 5473,
      "Ġfle": 5474,
      "ĠVer": 5475,
      "EC": 5476,
      "Ġ120": 5477,
      "ĠLand": 5478,
      "ĠWood": 5479,
      "Ġtim": 5480,
      "Ġant": 5481,
      "Ġheavy": 5482,
      "more": 5483,
      "Ġalongside": 5484,
      "Ġphysical": 5485,
      "lobal": 5486,
      "Ġnation": 5487,
      "ĠIrish": 5488,
      "Ġillness": 5489,
      "nic": 5490,
      "Ġ1984": 5491,
      "ĠSun": 5492,
      "ĠPython": 5493,
      "Ġobtain": 5494,
      "Ġsquad": 5495,
      "Ġarc": 5496,
      "acent": 5497,
      "xy": 5498,
      "ĠBill": 5499,
      "ca": 5500,
      "Ġmissing": 5501,
      "Ġdemand": 5502,
      "Ġreligious": 5503,
      "Ġapplication": 5504,
      "Ġpasseng": 5505,
      "ĠCat": 5506,
      "Ġinequality": 5507,
      "Ġproceed": 5508,
      "Ġfifth": 5509,
      "Ġtiss": 5510,
      "Ġ38": 5511,
      "espite": 5512,
      "Ġclaimed": 5513,
      "ĠFort": 5514,
      "Ġtechnology": 5515,
      "Ġassign": 5516,
      "airman": 5517,
      "Ġinfin": 5518,
      "Ġchief": 5519,
      "Ġsubs": 5520,
      "'ve": 5521,
      "console": 5522,
      "Ġreduce": 5523,
      "Ġpromin": 5524,
      "Ġlatter": 5525,
      "isco": 5526,
      "ĠMartin": 5527,
      "Ġculture": 5528,
      "Ġdesp": 5529,
      "Ġtold": 5530,
      "^{-": 5531,
      "ua": 5532,
      "Up": 5533,
      "ĠIran": 5534,
      "vest": 5535,
      "Ġthorough": 5536,
      "fort": 5537,
      "ĠMos": 5538,
      "Ġmaster": 5539,
      "ĠTom": 5540,
      "ĠName": 5541,
      "otient": 5542,
      "ĠEv": 5543,
      "orter": 5544,
      "ube": 5545,
      "Ġhorizontal": 5546,
      "ĠAtlant": 5547,
      "Ġgenus": 5548,
      "Ġcomputer": 5549,
      "Ġ;;": 5550,
      "Ġextended": 5551,
      "Ġbottom": 5552,
      "Ġforest": 5553,
      "ĠLong": 5554,
      "word": 5555,
      "ampion": 5556,
      "vant": 5557,
      "Ġquality": 5558,
      "ĠAnn": 5559,
      "Ġengineers": 5560,
      "'ll": 5561,
      "Ġsubsequently": 5562,
      "illa": 5563,
      "Ġ1000": 5564,
      "ĠBud": 5565,
      "Ġwanted": 5566,
      "Ġbelieved": 5567,
      "EG": 5568,
      "Using": 5569,
      "All": 5570,
      "Ġbrief": 5571,
      "iner": 5572,
      "ĠAdditionally": 5573,
      "Ġcolon": 5574,
      "ĠLim": 5575,
      "ĠSeries": 5576,
      "Ġnails": 5577,
      "Ġgiving": 5578,
      "Ġcombined": 5579,
      "Ad": 5580,
      "ĠBattle": 5581,
      "ĠPacific": 5582,
      "then": 5583,
      "Ġsuc": 5584,
      "Ġofficer": 5585,
      "Ġspaces": 5586,
      "ĠPet": 5587,
      "ĠIII": 5588,
      "Ġmunicipality": 5589,
      "ancy": 5590,
      "Ġ1985": 5591,
      "ULT": 5592,
      "ĊĉĠ": 5593,
      "Ġoutcomes": 5594,
      "Ġmultiplied": 5595,
      "Ġsatisf": 5596,
      "orning": 5597,
      "anda": 5598,
      "Ġraise": 5599,
      "ĠCur": 5600,
      "Ġ}{": 5601,
      "orage": 5602,
      "ĠBus": 5603,
      "Ġbegin": 5604,
      "bur": 5605,
      "Ġexit": 5606,
      "Ġequipment": 5607,
      "mary": 5608,
      "%.": 5609,
      "Ġprogress": 5610,
      "BA": 5611,
      "72": 5612,
      "length": 5613,
      "Ġdisplays": 5614,
      "onic": 5615,
      "Ġhighly": 5616,
      "Ġperforming": 5617,
      "Ġfields": 5618,
      "Ġmom": 5619,
      "43": 5620,
      "EM": 5621,
      "Ġvectors": 5622,
      "Ġindicates": 5623,
      "ĠColumb": 5624,
      "Ġlic": 5625,
      "Ġ49": 5626,
      "Ġmap": 5627,
      "ĠRh": 5628,
      "ered": 5629,
      "ĠWater": 5630,
      "Ġadapt": 5631,
      "Ġcongru": 5632,
      "ĠOh": 5633,
      "Ġtre": 5634,
      "Ġinn": 5635,
      "ĠTimes": 5636,
      "ĠBrazil": 5637,
      "Ġstop": 5638,
      "Ġsucceed": 5639,
      "Ġreally": 5640,
      "ĠPage": 5641,
      "mitted": 5642,
      "Ġdepartment": 5643,
      "{-": 5644,
      "ĠYour": 5645,
      "From": 5646,
      "Ġsquares": 5647,
      "inations": 5648,
      "Ġsister": 5649,
      "water": 5650,
      "Ġconstructed": 5651,
      "Ġsense": 5652,
      "total": 5653,
      "Ġanswers": 5654,
      "ĠList": 5655,
      "Ġrecip": 5656,
      "Ġturned": 5657,
      "Ġdrawn": 5658,
      "Ġvertex": 5659,
      "Ġassigned": 5660,
      "41": 5661,
      "ĠMur": 5662,
      "68": 5663,
      "'re": 5664,
      "Ġproposed": 5665,
      "azz": 5666,
      "fully": 5667,
      "Ġstations": 5668,
      "Ġmechan": 5669,
      "Ġfederal": 5670,
      "])": 5671,
      "Ġcompletely": 5672,
      "Ġcompared": 5673,
      "ĠMedia": 5674,
      "ĊĉĠĠĠĠĠĠĠĠĠĠĠ": 5675,
      "Ġdividing": 5676,
      "mond": 5677,
      "ĠHum": 5678,
      "ĠRun": 5679,
      "Ġgreatest": 5680,
      "Ġrecommendations": 5681,
      "ĠSouthern": 5682,
      "ki": 5683,
      "Ġguitar": 5684,
      "uge": 5685,
      "Ġarrest": 5686,
      "Ġdisease": 5687,
      "ĠID": 5688,
      "pm": 5689,
      "ĠProblems": 5690,
      "Ġserve": 5691,
      "tit": 5692,
      "ĠSar": 5693,
      "Thus": 5694,
      "iate": 5695,
      "itz": 5696,
      "ĠChief": 5697,
      "Ġplans": 5698,
      "Care": 5699,
      "olit": 5700,
      "Ġcalculator": 5701,
      "ĠArab": 5702,
      "ĠFe": 5703,
      "owl": 5704,
      "ĠPan": 5705,
      "~~": 5706,
      "Ġrecording": 5707,
      "Ġphil": 5708,
      "erem": 5709,
      "CF": 5710,
      "Ġpassing": 5711,
      "Ġmainly": 5712,
      "Ġmedal": 5713,
      "ses": 5714,
      "AF": 5715,
      "Ġseasons": 5716,
      "ĠBefore": 5717,
      "ĠPrime": 5718,
      "Ġlot": 5719,
      "ĠMethod": 5720,
      "Ġpeak": 5721,
      "box": 5722,
      "Res": 5723,
      "01": 5724,
      "Ġlegisl": 5725,
      "ĠâĪļ": 5726,
      "inet": 5727,
      "ĠThree": 5728,
      "bury": 5729,
      "Ġindex": 5730,
      "ĠEst": 5731,
      "Ġcommonly": 5732,
      "Ġsymmet": 5733,
      "Ġpieces": 5734,
      "Ġmovie": 5735,
      "^\\": 5736,
      "ĠVi": 5737,
      "ronic": 5738,
      "Ġsetting": 5739,
      "Ġsubtraction": 5740,
      "Ġ((": 5741,
      "Ġdeep": 5742,
      "Ġunivers": 5743,
      "yr": 5744,
      "App": 5745,
      "ĠGar": 5746,
      "MI": 5747,
      "urban": 5748,
      "Ġap": 5749,
      "Ġloan": 5750,
      "Ġgranted": 5751,
      "Ġvelocity": 5752,
      "Ġimpact": 5753,
      "89": 5754,
      "IV": 5755,
      "Ġeastern": 5756,
      "cohol": 5757,
      "ĠAssembly": 5758,
      "ĠData": 5759,
      "Ġnearby": 5760,
      "iling": 5761,
      "Val": 5762,
      "Ġ1983": 5763,
      "Ġtroops": 5764,
      "Ġinfluence": 5765,
      "ĠAwards": 5766,
      "rightarrow": 5767,
      "condition": 5768,
      "Ġhistorical": 5769,
      "Ġflight": 5770,
      "Ġreceive": 5771,
      "tered": 5772,
      "CM": 5773,
      "Ġletters": 5774,
      "ective": 5775,
      "ĠBecause": 5776,
      "Ġprefer": 5777,
      "Ġbridge": 5778,
      "Ġnearly": 5779,
      "icted": 5780,
      "Ġwarn": 5781,
      "Ġcouncil": 5782,
      "ĊĠĠĠĠĠĠĠĠĠĠĠĠĠĠĠĠĠĠĠĠĠĠĠ": 5783,
      "ĠSpain": 5784,
      "Ġtransformation": 5785,
      "rating": 5786,
      "standing": 5787,
      "ella": 5788,
      "bmatrix": 5789,
      "Ġacquired": 5790,
      "Ġschedul": 5791,
      "Ġfort": 5792,
      "Ġautom": 5793,
      "ĠLab": 5794,
      "Ġanything": 5795,
      "Ġhouses": 5796,
      "Ġconv": 5797,
      "Ġparameters": 5798,
      "$$,": 5799,
      "Ġhabit": 5800,
      "Ġreading": 5801,
      "rub": 5802,
      "Ġvote": 5803,
      "Ġalone": 5804,
      "Ġ1982": 5805,
      "igen": 5806,
      "astic": 5807,
      "bb": 5808,
      "#####": 5809,
      "ĠCirc": 5810,
      "Ġcalculation": 5811,
      "ĠCam": 5812,
      "ĠDeterm": 5813,
      "ivate": 5814,
      "Date": 5815,
      "Ġdiameter": 5816,
      "Ġinvalid": 5817,
      "Ġsearch": 5818,
      "Ġprobably": 5819,
      "Ġpoet": 5820,
      "ĠSupp": 5821,
      "Ġmill": 5822,
      "ĠSil": 5823,
      "Ġ1930": 5824,
      "Ġintegral": 5825,
      "arest": 5826,
      "Ġbranch": 5827,
      "Ġoccurred": 5828,
      "NC": 5829,
      "Ġreduced": 5830,
      "Ġ1940": 5831,
      "Ġsimplify": 5832,
      "osh": 5833,
      "ĠLord": 5834,
      "Ġdiscovered": 5835,
      "command": 5836,
      "Ġhospital": 5837,
      "Ġmatter": 5838,
      "ĠDespite": 5839,
      "Ġprep": 5840,
      "Ġgraduated": 5841,
      "Ġrecently": 5842,
      "reement": 5843,
      "ĠSquare": 5844,
      "Ġcitiz": 5845,
      "itt": 5846,
      "().": 5847,
      "Ġsociety": 5848,
      "ĠJim": 5849,
      "Ġcolumns": 5850,
      "Ġlif": 5851,
      "has": 5852,
      "ĠAD": 5853,
      "Ġremoved": 5854,
      "fty": 5855,
      "SS": 5856,
      "Next": 5857,
      "textcolor": 5858,
      "Se": 5859,
      "iana": 5860,
      "ĠHaw": 5861,
      "Ġdesc": 5862,
      "Ġexplan": 5863,
      "Ġinterior": 5864,
      "Ġdimens": 5865,
      "Ġcards": 5866,
      "ĠRET": 5867,
      "Ġregional": 5868,
      "Ġnative": 5869,
      "Ġimprove": 5870,
      "\"}": 5871,
      "onal": 5872,
      "Ġcalls": 5873,
      "Ġuseful": 5874,
      "gar": 5875,
      "Ġskin": 5876,
      "Ġarrived": 5877,
      "ĠReview": 5878,
      "ĠProgram": 5879,
      ":\\": 5880,
      "Ġprove": 5881,
      "ĠResearch": 5882,
      "Ġmentioned": 5883,
      "ĨĴ": 5884,
      "ĠConn": 5885,
      "ĠAnswer": 5886,
      "privacy": 5887,
      "ĠMax": 5888,
      "Ġ[\"": 5889,
      "och": 5890,
      "Ġdespite": 5891,
      "Ġ1972": 5892,
      "gl": 5893,
      "Math": 5894,
      "Ġfloor": 5895,
      "aped": 5896,
      "ĠĠĠĠĠĠ": 5897,
      "Ġdead": 5898,
      "Ġperimeter": 5899,
      "arr": 5900,
      "add": 5901,
      "ĠRETURN": 5902,
      "Ġreference": 5903,
      "ĠBritain": 5904,
      "actions": 5905,
      "Ġpil": 5906,
      "Ġraces": 5907,
      "56": 5908,
      "PA": 5909,
      "Ġasp": 5910,
      "Ġ1979": 5911,
      "Ġnote": 5912,
      "Ġsn": 5913,
      "Ġfre": 5914,
      "Ġinvolving": 5915,
      "Ġrequires": 5916,
      "Ġremember": 5917,
      "ĠPak": 5918,
      "Ġstreng": 5919,
      "Ġpasses": 5920,
      "irit": 5921,
      "Ġgas": 5922,
      "ĠFood": 5923,
      "det": 5924,
      "Ġ300": 5925,
      "Ġforward": 5926,
      "ĠSET": 5927,
      "Ġfavor": 5928,
      "Ġimpl": 5929,
      "Ġdomin": 5930,
      "97": 5931,
      "ady": 5932,
      "Ġbad": 5933,
      "Ġmodels": 5934,
      "ĠCarl": 5935,
      "file": 5936,
      "Ġcapacity": 5937,
      "Ġkil": 5938,
      "ĠCro": 5939,
      "iform": 5940,
      "Ġopportun": 5941,
      "ĠSat": 5942,
      "Ġlowest": 5943,
      "ĊĠĠĠĠĊ": 5944,
      "ĠJewish": 5945,
      "Ġexercise": 5946,
      "Ġhumidity": 5947,
      "ÂłÂłÂł": 5948,
      "Ġtracks": 5949,
      "Ġfeed": 5950,
      "ĠSa": 5951,
      "DER": 5952,
      "Ġ>>": 5953,
      "Ġconstants": 5954,
      "ĠEarth": 5955,
      "ĠBob": 5956,
      "Ġnotes": 5957,
      "Ġadvanced": 5958,
      "ĠCap": 5959,
      "phant": 5960,
      "ging": 5961,
      "Ġemb": 5962,
      "Ġchecking": 5963,
      "iest": 5964,
      "Ġorganiz": 5965,
      "Ġ1945": 5966,
      "Ġedge": 5967,
      "Ġlives": 5968,
      "ening": 5969,
      ":\",": 5970,
      "Ġability": 5971,
      "Ġstarts": 5972,
      "ĠDirector": 5973,
      "aught": 5974,
      "ĠRailway": 5975,
      "ĠCross": 5976,
      "mediate": 5977,
      "ĠQueen": 5978,
      "ĠFour": 5979,
      "hing": 5980,
      "}(": 5981,
      "clusion": 5982,
      "Ġends": 5983,
      "Ġ('": 5984,
      "Ġpromoted": 5985,
      "ĠCarolina": 5986,
      "Ġdamage": 5987,
      "ĠJud": 5988,
      "ali": 5989,
      "Ġtens": 5990,
      "Number": 5991,
      "Ġcrew": 5992,
      "ĠDemocratic": 5993,
      "Ġestimated": 5994,
      "amily": 5995,
      "iqu": 5996,
      "false": 5997,
      "Ċĉĉĉ": 5998,
      "Ġtrib": 5999,
      "Ġreviews": 6000,
      "ABLE": 6001,
      "ounder": 6002,
      "ĠMiddle": 6003,
      "Ġche": 6004,
      "Ġaim": 6005,
      "ĠDutch": 6006,
      "Ġmeters": 6007,
      "ĠMah": 6008,
      "ths": 6009,
      "Ġtopic": 6010,
      "ĠEmpire": 6011,
      "Ġquantity": 6012,
      "Ġ[[": 6013,
      "Ġmanaged": 6014,
      "Ġships": 6015,
      "Ġ1976": 6016,
      "At": 6017,
      "Ġeyes": 6018,
      "Ġconsecutive": 6019,
      "Ġcharge": 6020,
      "ĠInf": 6021,
      "Ġproportion": 6022,
      "Ġnotation": 6023,
      "Ġlengths": 6024,
      "ĠSpring": 6025,
      "ĠGovernor": 6026,
      "ĠTrue": 6027,
      "ĠMen": 6028,
      "Ġmarriage": 6029,
      "Ġmerg": 6030,
      "Ġbit": 6031,
      "Ġleaves": 6032,
      "ĠEdward": 6033,
      "Ġidentify": 6034,
      "ĠÎ¸": 6035,
      "NA": 6036,
      "Ġseem": 6037,
      "ĠPoland": 6038,
      "ĠKey": 6039,
      "ĠJones": 6040,
      "amin": 6041,
      "python": 6042,
      "ĠBash": 6043,
      "apers": 6044,
      "weet": 6045,
      "Ġdiagram": 6046,
      "Ġprincipal": 6047,
      "ĠGood": 6048,
      "Ġ1981": 6049,
      "rete": 6050,
      "arithm": 6051,
      "Ġonto": 6052,
      "Ġcube": 6053,
      "Ġbasketball": 6054,
      "........": 6055,
      "infty": 6056,
      "Ġissued": 6057,
      "Ġeffective": 6058,
      "Ġsources": 6059,
      "Ġhelps": 6060,
      "ĠLatin": 6061,
      "Ġslow": 6062,
      "ptom": 6063,
      "ĠSecurity": 6064,
      "Ġresidents": 6065,
      "ĠAsian": 6066,
      "Ġdoub": 6067,
      "Ġdiss": 6068,
      "Bl": 6069,
      "Ġassume": 6070,
      "Ġ1968": 6071,
      "Ġstars": 6072,
      "Ġtypically": 6073,
      "Ġhy": 6074,
      "Ġreturning": 6075,
      "Ġdesired": 6076,
      "Ġeffects": 6077,
      "Ġ1920": 6078,
      "portation": 6079,
      "American": 6080,
      "ĠLee": 6081,
      "ittle": 6082,
      "Ġcelebr": 6083,
      "77": 6084,
      "Ġ1974": 6085,
      "Ġult": 6086,
      "Ġelev": 6087,
      "ework": 6088,
      "ĠTour": 6089,
      "Sec": 6090,
      "Ġprimarily": 6091,
      "aters": 6092,
      "abilities": 6093,
      "newcommand": 6094,
      "ati": 6095,
      "onds": 6096,
      "rep": 6097,
      "Ġconvers": 6098,
      "ĠConference": 6099,
      "Ġlooks": 6100,
      "Ġelections": 6101,
      "encies": 6102,
      "TH": 6103,
      "Ġflu": 6104,
      "ĠWind": 6105,
      "Ġmurder": 6106,
      "Ġshoot": 6107,
      "ounded": 6108,
      "ĠOk": 6109,
      "hens": 6110,
      "Ġpowers": 6111,
      "Then": 6112,
      "Ġ150": 6113,
      "Ġ1975": 6114,
      "ĠBase": 6115,
      "ears": 6116,
      ",\\,\\": 6117,
      "Ġyes": 6118,
      "Ġunc": 6119,
      "Ġpresence": 6120,
      "Ġpolitician": 6121,
      "ĠEastern": 6122,
      "expert": 6123,
      "Su": 6124,
      "Ġwidth": 6125,
      "ora": 6126,
      "ĠElect": 6127,
      "Ġhyd": 6128,
      "Ġnail": 6129,
      "Ġrestaur": 6130,
      "wan": 6131,
      "Ġprojects": 6132,
      "Ġoffers": 6133,
      "ĠĠĠĠĠĠĠĠĠĠĠĠĠĠĠĠĠĠĠĠĠĠĠĠĠĠĠĠĠĠĠĠ": 6134,
      "ĠCreek": 6135,
      "Ġ1978": 6136,
      "iro": 6137,
      "Ġsufficient": 6138,
      "EFAULT": 6139,
      "ibilities": 6140,
      "Ġprocedure": 6141,
      "ĠRadio": 6142,
      "ĠBul": 6143,
      "Ġbehavior": 6144,
      "IF": 6145,
      "Ġskills": 6146,
      "Ġpaint": 6147,
      "types": 6148,
      "number": 6149,
      "Ġtasks": 6150,
      "Ġproducer": 6151,
      "itizer": 6152,
      "Ġslight": 6153,
      "aling": 6154,
      "Ġtank": 6155,
      "chest": 6156,
      "ĠNext": 6157,
      ".âĢĿ": 6158,
      "Ġdrug": 6159,
      "var": 6160,
      "ĠCalculates": 6161,
      "52": 6162,
      "ĠBig": 6163,
      "Ġretrie": 6164,
      "erry": 6165,
      "Ġrap": 6166,
      "Ġdiscount": 6167,
      "ĠSimilar": 6168,
      "Ġcultural": 6169,
      "ĠFrancisco": 6170,
      "Ġintersection": 6171,
      "Ġfast": 6172,
      "Ġconcent": 6173,
      "valu": 6174,
      "nes": 6175,
      "yan": 6176,
      "Ġoccurs": 6177,
      "ĠPhilipp": 6178,
      "ansas": 6179,
      "}}$$": 6180,
      "92": 6181,
      "amil": 6182,
      "ĠProduct": 6183,
      "Ġcyl": 6184,
      "Ġprofessor": 6185,
      "jo": 6186,
      "Ġconnected": 6187,
      "Ġsales": 6188,
      "Ġpurchased": 6189,
      "alog": 6190,
      "ĠKn": 6191,
      "Ġ\"-": 6192,
      "list": 6193,
      "Ġpaid": 6194,
      "emporary": 6195,
      "Ġcandidate": 6196,
      "Ġalleg": 6197,
      "ĠDEFAULT": 6198,
      "Ġtransferred": 6199,
      "Ġaccepted": 6200,
      "rices": 6201,
      "Ġspring": 6202,
      "gypt": 6203,
      "iled": 6204,
      "Ġfellow": 6205,
      "Ġlaws": 6206,
      "ager": 6207,
      "Ġtraffic": 6208,
      "peror": 6209,
      "top": 6210,
      "EST": 6211,
      "org": 6212,
      "Ġadjacent": 6213,
      "Ġinches": 6214,
      "Ġdecisions": 6215,
      "First": 6216,
      "Ġqueries": 6217,
      "ITH": 6218,
      "ipitation": 6219,
      "Ġintended": 6220,
      "ĠUpd": 6221,
      "Ġrows": 6222,
      "Ġcreating": 6223,
      "Ġbig": 6224,
      "oston": 6225,
      ".\";": 6226,
      "Cons": 6227,
      "nce": 6228,
      "rence": 6229,
      "ĊĠĠĠĠĠĠĠĠĠĠ": 6230,
      "ĠTheatre": 6231,
      "ĠFoundation": 6232,
      "ried": 6233,
      "ĠYoung": 6234,
      "Ġ55": 6235,
      "ipped": 6236,
      "Ġcru": 6237,
      "Ġexpanded": 6238,
      "Ġdoesn": 6239,
      "obile": 6240,
      "Ġattend": 6241,
      "Ġmarked": 6242,
      "ĠScotland": 6243,
      "gg": 6244,
      "ipe": 6245,
      "ĠDevelop": 6246,
      "Ġsemi": 6247,
      "ocation": 6248,
      "Ġholds": 6249,
      "icine": 6250,
      ")]": 6251,
      "kins": 6252,
      "Rel": 6253,
      "Ġsuggested": 6254,
      "anges": 6255,
      "%)": 6256,
      "akers": 6257,
      "Ġnull": 6258,
      "antry": 6259,
      "load": 6260,
      "ĠPeople": 6261,
      "________________": 6262,
      "ĠInteg": 6263,
      "Ġmales": 6264,
      "ĠLoop": 6265,
      "Ġnewspaper": 6266,
      "pack": 6267,
      "town": 6268,
      "een": 6269,
      "Ġworkers": 6270,
      "Ġmaterials": 6271,
      "Ġrequest": 6272,
      "ĠMultiply": 6273,
      "Ġ1973": 6274,
      "eros": 6275,
      "Ġmuseum": 6276,
      "Ġapplications": 6277,
      "acc": 6278,
      "Ġportion": 6279,
      "Ġabsolute": 6280,
      "error": 6281,
      "fr": 6282,
      "clean": 6283,
      "Ġclasses": 6284,
      "CD": 6285,
      "ĠInst": 6286,
      "Ġbud": 6287,
      "ĠLesson": 6288,
      "ctors": 6289,
      "Item": 6290,
      "Ġprofessionals": 6291,
      "Ġschedule": 6292,
      "ĠStation": 6293,
      "Ġelectric": 6294,
      "ersey": 6295,
      "ixt": 6296,
      "Ġappearances": 6297,
      "ugby": 6298,
      "Ġrecognized": 6299,
      "Ġalt": 6300,
      "Ġ52": 6301,
      "Ġ1977": 6302,
      "fits": 6303,
      "ĠPersonal": 6304,
      "Ġdepend": 6305,
      "ĠCleaning": 6306,
      "Ġoutcome": 6307,
      "0000": 6308,
      "ythag": 6309,
      "Ġclothing": 6310,
      "oration": 6311,
      "Ġhousing": 6312,
      "Ġrepeated": 6313,
      "ARY": 6314,
      "igonometric": 6315,
      "Ġhonor": 6316,
      "product": 6317,
      "ĠRoute": 6318,
      "Ġhar": 6319,
      "ĠCivil": 6320,
      "ĠRam": 6321,
      "Ġconfl": 6322,
      "ĠSand": 6323,
      "*}\\": 6324,
      "ĠTeam": 6325,
      ",$": 6326,
      "ancing": 6327,
      "ulas": 6328,
      "Ġpra": 6329,
      "Ġparticipated": 6330,
      "win": 6331,
      "har": 6332,
      "Ġfair": 6333,
      "ĠExpress": 6334,
      "ĠWal": 6335,
      "Ġancient": 6336,
      "Ġpartner": 6337,
      "war": 6338,
      "Ġthoroughly": 6339,
      "Ġrh": 6340,
      "87": 6341,
      "Ġrural": 6342,
      "(*": 6343,
      "irmed": 6344,
      "ĠGall": 6345,
      "ĠCentre": 6346,
      "Ġgrew": 6347,
      "Ġcontinues": 6348,
      "Ġunion": 6349,
      "irds": 6350,
      "sm": 6351,
      "Ġconducted": 6352,
      "Ġ1971": 6353,
      "next": 6354,
      "alpha": 6355,
      "ĠJOIN": 6356,
      "ĠCreate": 6357,
      "Ġwall": 6358,
      "eget": 6359,
      "iano": 6360,
      "ĠBu": 6361,
      "Ġdark": 6362,
      "Ġpython": 6363,
      "inem": 6364,
      "ĠEgypt": 6365,
      "Ġfacilities": 6366,
      "Ġgr": 6367,
      "Ġlibrary": 6368,
      "Ġpolyg": 6369,
      "ms": 6370,
      "Ġtaught": 6371,
      "Ġmonthly": 6372,
      "han": 6373,
      "iced": 6374,
      "Ġ1969": 6375,
      "Ġcoordinate": 6376,
      "duction": 6377,
      "ĠPortug": 6378,
      "ĠHa": 6379,
      "zy": 6380,
      "Ġice": 6381,
      "Ġalternative": 6382,
      "Ġeasier": 6383,
      "awa": 6384,
      "Ġengineering": 6385,
      "hum": 6386,
      "wa": 6387,
      "Ġrecover": 6388,
      "Ġcot": 6389,
      "ĠLinear": 6390,
      "Ġnotable": 6391,
      "Ġcars": 6392,
      "Ġprovince": 6393,
      "ifically": 6394,
      "Ġadvice": 6395,
      "istered": 6396,
      "imb": 6397,
      "Ġresources": 6398,
      "esh": 6399,
      "ĠMichigan": 6400,
      "ĠComple": 6401,
      "Ġ39": 6402,
      "resh": 6403,
      "Mult": 6404,
      "ĠGi": 6405,
      "Ġidentified": 6406,
      "ĠMajor": 6407,
      "Ġserves": 6408,
      "Ġtrip": 6409,
      "Ġsuccessfully": 6410,
      "ttps": 6411,
      "Ġdut": 6412,
      "Ġorganized": 6413,
      "ĠKent": 6414,
      "rics": 6415,
      "Ġ\")": 6416,
      "Ġmotion": 6417,
      "Ġmaintain": 6418,
      "ĠChecks": 6419,
      "ĠPractice": 6420,
      "Ġofficially": 6421,
      "aya": 6422,
      "Ġ\");": 6423,
      "sv": 6424,
      "Ġactor": 6425,
      "ĠStudents": 6426,
      "ĠExpl": 6427,
      "Ġcoefficient": 6428,
      "84": 6429,
      "Ġ1967": 6430,
      "etch": 6431,
      "force": 6432,
      "Ġeffic": 6433,
      "Ġelif": 6434,
      "Ġconcepts": 6435,
      "Area": 6436,
      "Ġstories": 6437,
      "Ġcontinuous": 6438,
      "Ġtrial": 6439,
      "ĠWilliams": 6440,
      "ellig": 6441,
      "osoph": 6442,
      "ĠJohnson": 6443,
      "ĠCharl": 6444,
      "uten": 6445,
      "while": 6446,
      "Ġstores": 6447,
      "ĠCoast": 6448,
      "faces": 6449,
      "Ġsession": 6450,
      "plify": 6451,
      "ĠGr": 6452,
      "burgh": 6453,
      "Ġ[]": 6454,
      "ering": 6455,
      "Ġobserved": 6456,
      "BS": 6457,
      "Ġcompar": 6458,
      "ĠLear": 6459,
      "abeth": 6460,
      "Ġnothing": 6461,
      "ĠPress": 6462,
      "Ġchannel": 6463,
      "ĠPrince": 6464,
      "ÅĤ": 6465,
      "Ġprominent": 6466,
      "ĠDate": 6467,
      "elta": 6468,
      "Ġtermin": 6469,
      "Ġpositions": 6470,
      "Ġparish": 6471,
      "Ġpartn": 6472,
      "Ġrevealed": 6473,
      "roduction": 6474,
      "Î¸": 6475,
      "entially": 6476,
      "Ġtan": 6477,
      "ocated": 6478,
      "Ġbigg": 6479,
      "ĠHon": 6480,
      "ĠRepresent": 6481,
      "Ġquotient": 6482,
      "Ġ72": 6483,
      "was": 6484,
      "HS": 6485,
      "Ġwidely": 6486,
      "igit": 6487,
      "Ġteaching": 6488,
      "Ġelimin": 6489,
      "Ġdyn": 6490,
      "nam": 6491,
      "MS": 6492,
      "Ġthing": 6493,
      "Ġmile": 6494,
      "ĠBroad": 6495,
      "atures": 6496,
      "Ġadministrative": 6497,
      "81": 6498,
      "Ġpan": 6499,
      "bet": 6500,
      "ĠHung": 6501,
      "CC": 6502,
      "ĠBoston": 6503,
      "tery": 6504,
      "ĠCall": 6505,
      "Ġfinish": 6506,
      "Ġroles": 6507,
      "ĠJac": 6508,
      "</": 6509,
      "Your": 6510,
      "ĠBal": 6511,
      "ĠGal": 6512,
      "Ġscene": 6513,
      "fi": 6514,
      "ĠOhio": 6515,
      "leep": 6516,
      "Ġpurs": 6517,
      "rong": 6518,
      "mathbf": 6519,
      "Ġetiquette": 6520,
      "Ġarithmetic": 6521,
      "Ġ1964": 6522,
      "ĠOutput": 6523,
      "Ġjoint": 6524,
      "oned": 6525,
      "mission": 6526,
      "Ġcomment": 6527,
      "iplication": 6528,
      "achel": 6529,
      "Ġheadqu": 6530,
      "Ġminus": 6531,
      "ĠTABLE": 6532,
      "ĠOffice": 6533,
      "Ġtrying": 6534,
      "John": 6535,
      "aka": 6536,
      "Ġscientific": 6537,
      "ĠOnce": 6538,
      "ĠExercise": 6539,
      "sub": 6540,
      "Not": 6541,
      "typescript": 6542,
      "Ġyards": 6543,
      "Ġ400": 6544,
      "}+\\": 6545,
      "ĠMcC": 6546,
      "Ġsubst": 6547,
      "ĠHead": 6548,
      "Ġcongruent": 6549,
      "ĠUr": 6550,
      "Ġpsych": 6551,
      "Ġdriver": 6552,
      "Ġaccordingly": 6553,
      "Ġwithd": 6554,
      "aligned": 6555,
      "Ġsoldiers": 6556,
      "Ġplanned": 6557,
      "ibly": 6558,
      "iffer": 6559,
      "ERGE": 6560,
      "ĠVari": 6561,
      "Ġrenamed": 6562,
      "logram": 6563,
      "Ġmess": 6564,
      "ĠPo": 6565,
      "Ġpurpose": 6566,
      "ĠSpecial": 6567,
      "Am": 6568,
      "TE": 6569,
      "Ġavg": 6570,
      "Ġalgebraic": 6571,
      "din": 6572,
      "With": 6573,
      "ima": 6574,
      "02": 6575,
      "Ġheav": 6576,
      "ador": 6577,
      "Ġselection": 6578,
      "Ġdx": 6579,
      ")}{": 6580,
      "Ġefforts": 6581,
      "Ġofficers": 6582,
      "Ġcompare": 6583,
      "Ġcontext": 6584,
      "Ġproperly": 6585,
      "Ġcouple": 6586,
      "oten": 6587,
      "ĠEll": 6588,
      "ja": 6589,
      "Ġacting": 6590,
      "ĠStar": 6591,
      "Ġbash": 6592,
      "Ġcoming": 6593,
      "ger": 6594,
      "ĠSecretary": 6595,
      "=>": 6596,
      "Ġexpansion": 6597,
      "Ġvisual": 6598,
      "86": 6599,
      "ĠGre": 6600,
      "ĠNews": 6601,
      "ishes": 6602,
      "ila": 6603,
      "she": 6604,
      "Ġ(,": 6605,
      "adel": 6606,
      "amination": 6607,
      "One": 6608,
      "osis": 6609,
      "Ġconsult": 6610,
      "Ġtwenty": 6611,
      "Ġreform": 6612,
      "Ġproof": 6613,
      "Ġdedicated": 6614,
      "Ġ56": 6615,
      "ĠRepublican": 6616,
      "gender": 6617,
      "ĠTro": 6618,
      "Ġseems": 6619,
      "ĠAsia": 6620,
      "ĠGiven": 6621,
      "ean": 6622,
      "Ġrelative": 6623,
      "Ġdraft": 6624,
      "94": 6625,
      "ĠPower": 6626,
      "Tem": 6627,
      "ennis": 6628,
      "het": 6629,
      "Ġyouth": 6630,
      "ji": 6631,
      "Ġà": 6632,
      "ĠFractions": 6633,
      "Ġmind": 6634,
      "long": 6635,
      "Ġchapter": 6636,
      "ĠCON": 6637,
      "]}": 6638,
      "ĠSenate": 6639,
      "Ġmountain": 6640,
      "yard": 6641,
      "hfill": 6642,
      "ressed": 6643,
      "Ġacademic": 6644,
      "elled": 6645,
      "stone": 6646,
      "ĠTim": 6647,
      "asure": 6648,
      "Ġpropos": 6649,
      "ĠCamb": 6650,
      "ĠCard": 6651,
      "asal": 6652,
      "Ġattract": 6653,
      "Ġstreet": 6654,
      "Ġrare": 6655,
      "Ġlie": 6656,
      "Problem": 6657,
      "test": 6658,
      "isters": 6659,
      "Ġoral": 6660,
      "Ġmetal": 6661,
      "ev": 6662,
      "ĠStan": 6663,
      "ĠPolish": 6664,
      "Ġmeets": 6665,
      "ĠEnter": 6666,
      "Ġagreed": 6667,
      "anging": 6668,
      "ĠSund": 6669,
      "ulf": 6670,
      "ĠBBC": 6671,
      "Ġfully": 6672,
      "]-(": 6673,
      "ĠDisc": 6674,
      "cean": 6675,
      "54": 6676,
      "Rate": 6677,
      "Ġfitness": 6678,
      "Ġowner": 6679,
      "bar": 6680,
      "oting": 6681,
      "Ġoperating": 6682,
      "Ġtables": 6683,
      "Ġrelevant": 6684,
      "Ġlanguages": 6685,
      "phy": 6686,
      "Ġhistoric": 6687,
      "Ġnearest": 6688,
      "Ġprints": 6689,
      "Ġvisited": 6690,
      "ĠMu": 6691,
      "Ġ);": 6692,
      "Ġbought": 6693,
      "Value": 6694,
      "Ġ1965": 6695,
      "ĠOx": 6696,
      "Ġblocks": 6697,
      "joy": 6698,
      "Ġgained": 6699,
      "loat": 6700,
      "ko": 6701,
      "ologist": 6702,
      "neeze": 6703,
      "Ġmoment": 6704,
      "Ġ1944": 6705,
      "Ġchance": 6706,
      "ĠPRIM": 6707,
      "Rem": 6708,
      "ĠRos": 6709,
      "Ġexponent": 6710,
      "Ð¾": 6711,
      "ĠBern": 6712,
      "Ġsolid": 6713,
      "UP": 6714,
      "ĠField": 6715,
      "Ġmachine": 6716,
      "Ġquadr": 6717,
      "ĠCy": 6718,
      "etime": 6719,
      "ĠColumbia": 6720,
      "erman": 6721,
      "sen": 6722,
      "Ġallowing": 6723,
      "ĊĠĠĠĠĠĠĠĠĊĠĠĠĠĠĠĠĠĠĠĠ": 6724,
      "ĠSever": 6725,
      "Ġamb": 6726,
      "({": 6727,
      "Ġstone": 6728,
      "ĠTay": 6729,
      "Ġwinner": 6730,
      "Ġtell": 6731,
      "ĠSea": 6732,
      "uilding": 6733,
      "ĠFunctions": 6734,
      "Ġbathing": 6735,
      "Ġ\";": 6736,
      "Ġcalling": 6737,
      "Ġsettlement": 6738,
      "price": 6739,
      "Ġaccel": 6740,
      "icks": 6741,
      "ederation": 6742,
      "stein": 6743,
      "Ġrelatively": 6744,
      "yer": 6745,
      "ĠIdent": 6746,
      "ricket": 6747,
      "Ġsevent": 6748,
      "Ġcosts": 6749,
      "Ġstandards": 6750,
      "ĠGeorgia": 6751,
      "ĠDetermines": 6752,
      "{.": 6753,
      "QU": 6754,
      "iny": 6755,
      "}\\\\": 6756,
      "Ġserious": 6757,
      "Ġdoll": 6758,
      "ĠScottish": 6759,
      "93": 6760,
      ".$": 6761,
      "âĪł": 6762,
      "iga": 6763,
      "ĠSyd": 6764,
      "ighth": 6765,
      "olved": 6766,
      "Ġ1966": 6767,
      "Ġupdates": 6768,
      "ĠAre": 6769,
      "ĠIslam": 6770,
      "Ġstrugg": 6771,
      "rich": 6772,
      "ĠAvenue": 6773,
      "ĠSection": 6774,
      "Ġweap": 6775,
      "Ġcells": 6776,
      "ternal": 6777,
      "Ġchalleng": 6778,
      "Ġpet": 6779,
      "Ġ{}": 6780,
      "Ġdefeat": 6781,
      "ĠHor": 6782,
      "ĠPRIMARY": 6783,
      "Ġagricult": 6784,
      "=(": 6785,
      "Ġadopted": 6786,
      "SELECT": 6787,
      "urt": 6788,
      "Ġsoftware": 6789,
      "(),": 6790,
      "Ġinjury": 6791,
      "ĠAM": 6792,
      "Ġremove": 6793,
      "DE": 6794,
      "Status": 6795,
      "inois": 6796,
      "urer": 6797,
      "ĠCS": 6798,
      "Ġdestroyed": 6799,
      "ĠPen": 6800,
      "Ġobserv": 6801,
      "Ġhandwashing": 6802,
      "Ġduration": 6803,
      "phantom": 6804,
      "iders": 6805,
      "Ġpicture": 6806,
      "ĠDer": 6807,
      "ĠHospital": 6808,
      "Answer": 6809,
      "AMP": 6810,
      "current": 6811,
      "lections": 6812,
      "miss": 6813,
      "ĠUk": 6814,
      "Ġalcohol": 6815,
      "Ġinvolves": 6816,
      "%,": 6817,
      "ĠFlossing": 6818,
      "Ġvehicle": 6819,
      "Ġlargely": 6820,
      "Ġdigital": 6821,
      "inse": 6822,
      "Ġexc": 6823,
      "ypes": 6824,
      "Ġachieved": 6825,
      "real": 6826,
      "Ġinhab": 6827,
      "Ġprepar": 6828,
      "Ġdeliver": 6829,
      "ĠEliz": 6830,
      "lers": 6831,
      "Ġquite": 6832,
      "Ġfixed": 6833,
      "Ġlesson": 6834,
      "Be": 6835,
      "Ġadministration": 6836,
      "Ġtower": 6837,
      "Ġfeaturing": 6838,
      "ĠSup": 6839,
      "SERT": 6840,
      "ela": 6841,
      "ĠMean": 6842,
      "iral": 6843,
      "ĠVan": 6844,
      "Don": 6845,
      "idelines": 6846,
      "Ġscoring": 6847,
      "Ġlearned": 6848,
      "leans": 6849,
      "After": 6850,
      "ABC": 6851,
      "Ġlocations": 6852,
      ")}^{": 6853,
      "temperature": 6854,
      "Ġproviding": 6855,
      "Ġassess": 6856,
      "Ġsubstitute": 6857,
      "ĠCorpor": 6858,
      "ĠJan": 6859,
      "ĠHistoric": 6860,
      "Ġly": 6861,
      "Ġnewly": 6862,
      "Ġdeclared": 6863,
      "Ġexecutive": 6864,
      "ĠJackson": 6865,
      "Ġpal": 6866,
      "())": 6867,
      "yal": 6868,
      "ĠCorps": 6869,
      "Ġyellow": 6870,
      "ATION": 6871,
      "Ġscan": 6872,
      "Ġdescribe": 6873,
      "reedom": 6874,
      "Ġkept": 6875,
      "ĠFactor": 6876,
      "63": 6877,
      "Ġvotes": 6878,
      "gn": 6879,
      "Fact": 6880,
      "{}": 6881,
      "Ġperman": 6882,
      "endl": 6883,
      "rovers": 6884,
      "ĠExamples": 6885,
      "57": 6886,
      "Ġclubs": 6887,
      "04": 6888,
      "hr": 6889,
      "Ġnuc": 6890,
      "Ġbegins": 6891,
      "itage": 6892,
      "ĠPythag": 6893,
      ")\"": 6894,
      "Ġapproaches": 6895,
      "Ġsuppl": 6896,
      "Ġburn": 6897,
      "etts": 6898,
      "Ð°": 6899,
      "Ġplants": 6900,
      "ĠDevelopment": 6901,
      "ĠSydney": 6902,
      "Ġresponses": 6903,
      "infect": 6904,
      "ervative": 6905,
      "Ġcovers": 6906,
      "mouth": 6907,
      "Ġextrem": 6908,
      "Product": 6909,
      "ĠJes": 6910,
      "nique": 6911,
      "Ġagreement": 6912,
      "ĠUnit": 6913,
      "pty": 6914,
      "ĠLi": 6915,
      "Ġsafe": 6916,
      "Ġbill": 6917,
      "Ġmarks": 6918,
      "Ġassistant": 6919,
      "Ġcourses": 6920,
      "arent": 6921,
      "ĠIllinois": 6922,
      "dor": 6923,
      "ĠRay": 6924,
      "Ġappointment": 6925,
      "Us": 6926,
      "cin": 6927,
      "ĠUpdates": 6928,
      "javascript": 6929,
      "Expert": 6930,
      "puty": 6931,
      "Ġresulted": 6932,
      "Ġshowed": 6933,
      "Ġsuffered": 6934,
      "Ġcommunities": 6935,
      "usion": 6936,
      "ova": 6937,
      "Ġcomponents": 6938,
      "riz": 6939,
      "ĠFormula": 6940,
      "Ġestate": 6941,
      "Ġrepresentation": 6942,
      "max": 6943,
      "Ġ54": 6944,
      "Ġcaptured": 6945,
      "SP": 6946,
      "ĠChild": 6947,
      "Ġtitled": 6948,
      "Ġwor": 6949,
      "ĠMot": 6950,
      "Ġgirls": 6951,
      "Ġeffort": 6952,
      "ĠToilet": 6953,
      "Ġwing": 6954,
      "achus": 6955,
      "EO": 6956,
      "Ġlabor": 6957,
      "Ġjava": 6958,
      "Ġleaders": 6959,
      "ricts": 6960,
      "Ġslightly": 6961,
      "ĠCa": 6962,
      "Ġhotel": 6963,
      "Ġconfidence": 6964,
      "eed": 6965,
      "ĠAlexander": 6966,
      "utenant": 6967,
      "orrect": 6968,
      "Ġtick": 6969,
      "à¸": 6970,
      "amm": 6971,
      "ĠHair": 6972,
      "Ġparab": 6973,
      "ĠCA": 6974,
      "ione": 6975,
      "ĠProbability": 6976,
      "Ġiniti": 6977,
      "Ġsurrounding": 6978,
      "ented": 6979,
      "health": 6980,
      "ograp": 6981,
      "ĠSolving": 6982,
      "ĠJersey": 6983,
      "ĠViet": 6984,
      "Ġaccomp": 6985,
      "claim": 6986,
      "ĠðĿĳ": 6987,
      "ĠWall": 6988,
      "Ġtried": 6989,
      "entist": 6990,
      "ĠAnton": 6991,
      "Ġformation": 6992,
      "Ġcitizens": 6993,
      "iy": 6994,
      "main": 6995,
      "Input": 6996,
      "ĠProfessor": 6997,
      "ĠSong": 6998,
      "âĤ¯": 6999,
      "Ġenem": 7000,
      "83": 7001,
      "Ġdecimals": 7002,
      "calculate": 7003,
      "ĠBre": 7004,
      "outs": 7005,
      "ĠBlue": 7006,
      "perial": 7007,
      "rance": 7008,
      "Ġwa": 7009,
      "Ġprotection": 7010,
      "Col": 7011,
      "ĠVis": 7012,
      "uts": 7013,
      "gu": 7014,
      "Ġregions": 7015,
      "Ġvertices": 7016,
      "91": 7017,
      "UNT": 7018,
      "ĠLike": 7019,
      "Ġterritory": 7020,
      "ĠMuslim": 7021,
      "Ġindustrial": 7022,
      "Ġfish": 7023,
      "Ġradical": 7024,
      "ĠKong": 7025,
      "Â·": 7026,
      "Ġsilver": 7027,
      "ÂĿÂĳâĤ¯": 7028,
      "Ġboy": 7029,
      "Ġconfirmed": 7030,
      "âĤ¬âĢľ": 7031,
      "ĠDisplays": 7032,
      "Ġparties": 7033,
      "Ġmotor": 7034,
      "Ġfinds": 7035,
      "Ġminute": 7036,
      "Ġcold": 7037,
      "Ġencoura": 7038,
      "Ġ(:": 7039,
      "bi": 7040,
      "ato": 7041,
      "ĠBelg": 7042,
      "Ġcerem": 7043,
      "ĠHence": 7044,
      "overline": 7045,
      "Ġstream": 7046,
      "Ġscholars": 7047,
      "ĠLife": 7048,
      "clusive": 7049,
      "temp": 7050,
      "Ġdrum": 7051,
      "ĠLog": 7052,
      "Ġpul": 7053,
      "Ġanalyze": 7054,
      "Ġmorning": 7055,
      "ĠAndrew": 7056,
      "Ġbeat": 7057,
      "ĠExt": 7058,
      "ĠDar": 7059,
      "Ġepisodes": 7060,
      "Ġconnection": 7061,
      "Ġpurchase": 7062,
      "ĠUnivers": 7063,
      "Ġcorner": 7064,
      "Ġfell": 7065,
      "ĠKen": 7066,
      "Ġreliable": 7067,
      "bec": 7068,
      "ĠRome": 7069,
      "Ġsecret": 7070,
      "ĠBrook": 7071,
      "foot": 7072,
      "Ġreject": 7073,
      "ĠAk": 7074,
      "Ġreasons": 7075,
      "OC": 7076,
      "Ġexperien": 7077,
      "Ġseats": 7078,
      "Ġviews": 7079,
      "oves": 7080,
      "ais": 7081,
      "Ġshampoo": 7082,
      "Ġ1963": 7083,
      "ĠIndepend": 7084,
      "Ġdrink": 7085,
      "ington": 7086,
      "onto": 7087,
      "Ġproved": 7088,
      "PS": 7089,
      "Ġaband": 7090,
      "Ġspot": 7091,
      "Ġdetected": 7092,
      "Ġtitles": 7093,
      "ĠFederal": 7094,
      "ĠCare": 7095,
      "Ġdance": 7096,
      "Ġcam": 7097,
      "Ġtransportation": 7098,
      "ĠUs": 7099,
      "MENT": 7100,
      "izer": 7101,
      "Ġera": 7102,
      "ĠFC": 7103,
      "di": 7104,
      "Ġrespond": 7105,
      "62": 7106,
      "ighter": 7107,
      "ĠVill": 7108,
      "Ġsneezing": 7109,
      "Ġ1962": 7110,
      "Ġdrama": 7111,
      "}}{\\": 7112,
      "Ð¸": 7113,
      "ĠUl": 7114,
      "ĠElse": 7115,
      "Ġsolo": 7116,
      "Ġvoice": 7117,
      "Ðµ": 7118,
      "Ġmeant": 7119,
      "Ġconstitu": 7120,
      "Ġexceed": 7121,
      "...\"": 7122,
      "ĠJr": 7123,
      "HAS": 7124,
      "ĠPass": 7125,
      "ĠBang": 7126,
      "Ġalbums": 7127,
      "Ġrates": 7128,
      "ĠAnt": 7129,
      "Ġ1942": 7130,
      "ĠBerlin": 7131,
      "Ġexponents": 7132,
      "Ġcalculations": 7133,
      "Ġmemory": 7134,
      "Ġpit": 7135,
      "Ġfootballer": 7136,
      "ĠCorporation": 7137,
      "Ġgrowing": 7138,
      "Ġreflect": 7139,
      "illy": 7140,
      "Ġsigns": 7141,
      "Ġuns": 7142,
      "Ġimag": 7143,
      "Ġsingles": 7144,
      "ĠHong": 7145,
      "ĠInitial": 7146,
      "ĠRaj": 7147,
      "Ġvess": 7148,
      "egative": 7149,
      "achusetts": 7150,
      "Ġbul": 7151,
      "olid": 7152,
      "Ġreports": 7153,
      "Ġawards": 7154,
      "ĠCho": 7155,
      "Ġrecon": 7156,
      "Ġcontrovers": 7157,
      "ĠTransforms": 7158,
      "Ġarguments": 7159,
      "ded": 7160,
      "ĠOtt": 7161,
      "(\"-": 7162,
      "Ġvehicles": 7163,
      "centage": 7164,
      "ĠKenn": 7165,
      "Ġconverted": 7166,
      "Ġretire": 7167,
      "ĠAirport": 7168,
      "ifications": 7169,
      "Tra": 7170,
      "term": 7171,
      "Stud": 7172,
      "Ġlosing": 7173,
      "Ġsector": 7174,
      "asy": 7175,
      "Ġ1948": 7176,
      "update": 7177,
      "74": 7178,
      "Ġexperiment": 7179,
      "Ġparallelogram": 7180,
      "ategory": 7181,
      "Ġfelt": 7182,
      "ĠQuestions": 7183,
      "='": 7184,
      "otenuse": 7185,
      "idential": 7186,
      "ĠBetween": 7187,
      "ĠJean": 7188,
      "iples": 7189,
      "ĠChall": 7190,
      "Ġstre": 7191,
      "Ġcampus": 7192,
      "Ġ95": 7193,
      "thur": 7194,
      "orship": 7195,
      "Ġhosted": 7196,
      "ĠAsh": 7197,
      "Consent": 7198,
      "ropical": 7199,
      "Ġfit": 7200,
      "Ġrefers": 7201,
      "Ġdrawing": 7202,
      "ĠCorn": 7203,
      "Ġcatch": 7204,
      "Ġ41": 7205,
      "Ġaffili": 7206,
      "erved": 7207,
      "Ġpatterns": 7208,
      "Ġvary": 7209,
      "Ġmicro": 7210,
      "onom": 7211,
      "ĠArgent": 7212,
      "also": 7213,
      "Ġpeace": 7214,
      "ĠReal": 7215,
      "ĠGame": 7216,
      "onia": 7217,
      "Finally": 7218,
      "Ġschema": 7219,
      "Ġsections": 7220,
      "Add": 7221,
      "package": 7222,
      "Pat": 7223,
      "ĠAp": 7224,
      "ĠLove": 7225,
      "Ġmis": 7226,
      "Ġlogarithm": 7227,
      "ĠBrig": 7228,
      "(*)": 7229,
      "ĠWeek": 7230,
      "ĠUser": 7231,
      "unte": 7232,
      "Ġfabric": 7233,
      "Ġtemper": 7234,
      ")=\\": 7235,
      "akh": 7236,
      "Ġdeviation": 7237,
      "'m": 7238,
      "ĠDou": 7239,
      "iar": 7240,
      "Ġchampion": 7241,
      "Ġcoal": 7242,
      "Ġtooth": 7243,
      "Ġconference": 7244,
      "Ġ85": 7245,
      "imately": 7246,
      "Ġstating": 7247,
      "orean": 7248,
      "Ġintercept": 7249,
      "poses": 7250,
      "ĠWay": 7251,
      "mas": 7252,
      "Ġtheme": 7253,
      "Ġadjust": 7254,
      "Ġincreases": 7255,
      "Ġranked": 7256,
      "Ġsav": 7257,
      "ĠMassachusetts": 7258,
      "Ġsmallest": 7259,
      "Ġorganizations": 7260,
      "Ġleadership": 7261,
      "Ġsand": 7262,
      "Ġisol": 7263,
      "Ġconcert": 7264,
      "dr": 7265,
      "ĠElizabeth": 7266,
      "Ġfi": 7267,
      "ĠMaria": 7268,
      "oz": 7269,
      "opes": 7270,
      "Ġstored": 7271,
      "oud": 7272,
      "rule": 7273,
      "Ġcreation": 7274,
      "Ġderived": 7275,
      "appro": 7276,
      "ĠConf": 7277,
      "ĠCapt": 7278,
      "Ġcalculating": 7279,
      "ĠHome": 7280,
      "Ġgall": 7281,
      "Ġparliament": 7282,
      "Ġbey": 7283,
      "Ġurban": 7284,
      "ules": 7285,
      "Ġpainting": 7286,
      "ĠBorn": 7287,
      "?\"": 7288,
      "Ġ1941": 7289,
      "Ġfun": 7290,
      "Ġgeometric": 7291,
      "Ġthr": 7292,
      "82": 7293,
      "ĠBridge": 7294,
      "Ġinvestment": 7295,
      "urance": 7296,
      "pton": 7297,
      "Ġrectangular": 7298,
      "Ġauth": 7299,
      "Ġcarri": 7300,
      "MATCH": 7301,
      "Ġjoining": 7302,
      "Ġorders": 7303,
      "Ġsugar": 7304,
      "Ġchain": 7305,
      "Ġinstrument": 7306,
      "odies": 7307,
      "Ġenjoy": 7308,
      "Ġsurvey": 7309,
      "Ġyounger": 7310,
      "ĠCub": 7311,
      "Ġplanning": 7312,
      "ĠLittle": 7313,
      "Ġglass": 7314,
      "ĠAmong": 7315,
      "ĠTrack": 7316,
      "ĠFar": 7317,
      "ĠRog": 7318,
      "Ġstrings": 7319,
      "estic": 7320,
      "ĠDraw": 7321,
      "active": 7322,
      "Ans": 7323,
      "hist": 7324,
      "ĠDev": 7325,
      "Ġopin": 7326,
      "Medium": 7327,
      "Ġbomb": 7328,
      "Ġ43": 7329,
      "Ġdog": 7330,
      "Î²": 7331,
      "answer": 7332,
      "Ġimportance": 7333,
      "emet": 7334,
      "ĠOlympic": 7335,
      "Ġmetres": 7336,
      "Ġneighbor": 7337,
      "Ġbeyond": 7338,
      "TA": 7339,
      "79": 7340,
      "onym": 7341,
      "Ġsecondary": 7342,
      "ĠVictoria": 7343,
      "Ġ1946": 7344,
      "Ġ},": 7345,
      "Ġfacility": 7346,
      "Inter": 7347,
      "Ġcart": 7348,
      "ĠInput": 7349,
      "Ġsites": 7350,
      "Ġminister": 7351,
      "worth": 7352,
      "MA": 7353,
      "Ġcycl": 7354,
      "ĠBi": 7355,
      "Im": 7356,
      "Ġdisplayed": 7357,
      "06": 7358,
      "ĠThrough": 7359,
      "Ġcommittee": 7360,
      "julia": 7361,
      "Ġ^": 7362,
      "Ġgraphs": 7363,
      "ĠTre": 7364,
      "ĠFalse": 7365,
      "Ġbudget": 7366,
      "Ġshapes": 7367,
      "ĠTownship": 7368,
      "Ġassociation": 7369,
      "Ġnorm": 7370,
      "ĠDown": 7371,
      "Ġ1943": 7372,
      "Ġcontest": 7373,
      "IA": 7374,
      "Ġ1961": 7375,
      "ĠJustice": 7376,
      "ĠEnd": 7377,
      "Ġearth": 7378,
      "double": 7379,
      "UN": 7380,
      "CREATE": 7381,
      "ĠLie": 7382,
      "mb": 7383,
      "Ġtrains": 7384,
      "Ġshowing": 7385,
      "Ġdidn": 7386,
      "Ġsport": 7387,
      "73": 7388,
      "ĠHarris": 7389,
      "stream": 7390,
      "amount": 7391,
      "ĠMinistry": 7392,
      "cted": 7393,
      ")^{": 7394,
      "ĠDaniel": 7395,
      "Ġclothes": 7396,
      "Ġapproved": 7397,
      "ÂĢ": 7398,
      "Ġlimits": 7399,
      "ĠTaylor": 7400,
      "transform": 7401,
      "Ġversions": 7402,
      "Ġclaims": 7403,
      "Ġnominated": 7404,
      "ĠOrig": 7405,
      "ĠLibrary": 7406,
      "Ġideas": 7407,
      "Ġsevere": 7408,
      "ouri": 7409,
      "\\;\\;": 7410,
      "iant": 7411,
      "Ġspons": 7412,
      "Ġ@": 7413,
      "Ġburied": 7414,
      "Ph": 7415,
      "tri": 7416,
      "Ġ1956": 7417,
      "Ġdefines": 7418,
      "ĠHighway": 7419,
      "Ġworth": 7420,
      "amber": 7421,
      "Ġrough": 7422,
      "Ġbath": 7423,
      "Ġresistance": 7424,
      "state": 7425,
      "life": 7426,
      "Ġcategories": 7427,
      "!/": 7428,
      "ĠTw": 7429,
      "Ġtrees": 7430,
      "08": 7431,
      "size": 7432,
      "Ġ____": 7433,
      "Ġflat": 7434,
      "qquad": 7435,
      "ĠAvoid": 7436,
      "ĠLew": 7437,
      "aug": 7438,
      "ĠQueens": 7439,
      "lines": 7440,
      "Ġ1939": 7441,
      "Ġsquared": 7442,
      "Ġago": 7443,
      "olitan": 7444,
      "elve": 7445,
      "Ġtow": 7446,
      "Ġarticles": 7447,
      "ĠOs": 7448,
      "Ġimmig": 7449,
      "Ġ\",": 7450,
      "Ġsituated": 7451,
      "Ġcab": 7452,
      "ags": 7453,
      "Ġ\"*": 7454,
      "ĠIslands": 7455,
      "âĢĶâĢĶ": 7456,
      "ĠHistory": 7457,
      "phas": 7458,
      "ĠJeff": 7459,
      "Ġrapid": 7460,
      "ĠORDER": 7461,
      "Ġachieve": 7462,
      "Ġattrib": 7463,
      "Ġdesignated": 7464,
      "bourne": 7465,
      "Person": 7466,
      "Ġestimate": 7467,
      "ISTS": 7468,
      "Ġyield": 7469,
      "Ġinterpret": 7470,
      "len": 7471,
      "ba": 7472,
      "Ġending": 7473,
      "hu": 7474,
      "Based": 7475,
      "ĠLuc": 7476,
      "Ġtut": 7477,
      "ĠWeather": 7478,
      "Ġsixth": 7479,
      "ĠBishop": 7480,
      "Ġliterature": 7481,
      "Sum": 7482,
      "Ġwatch": 7483,
      "Ġexercises": 7484,
      "ĠClark": 7485,
      "Ġethical": 7486,
      "Ã¸": 7487,
      "Ġpayment": 7488,
      "Ġcontemporary": 7489,
      "ĠAge": 7490,
      "Ġperformances": 7491,
      "ĠRevolution": 7492,
      "Ġadvant": 7493,
      "+--------": 7494,
      "Ġscul": 7495,
      "ĠOnly": 7496,
      "Ġsucceeded": 7497,
      "Ġeld": 7498,
      "aks": 7499,
      "Ġvan": 7500,
      "Ġagg": 7501,
      "Ġdf": 7502,
      "($": 7503,
      "Ġ__": 7504,
      "Ġkg": 7505,
      "ĠKorea": 7506,
      "adelph": 7507,
      "emetery": 7508,
      "Ġauthorities": 7509,
      "Ġ51": 7510,
      "ĠSupreme": 7511,
      "Ġdeveloping": 7512,
      "Ġmask": 7513,
      "Ġnotice": 7514,
      "Ġsupply": 7515,
      "ĠBoy": 7516,
      "path": 7517,
      "match": 7518,
      "outheast": 7519,
      "Ġ*/": 7520,
      "ulty": 7521,
      "ĠRod": 7522,
      "fficients": 7523,
      "inger": 7524,
      "ucky": 7525,
      "raction": 7526,
      "agn": 7527,
      "Ġdrive": 7528,
      "Ġtend": 7529,
      "Ġliber": 7530,
      "${\\": 7531,
      "Ġnort": 7532,
      "Ġ1947": 7533,
      "aith": 7534,
      "ĠDuke": 7535,
      "Ġheat": 7536,
      "ĠPakistan": 7537,
      "lementary": 7538,
      "ĠBab": 7539,
      "ĠBell": 7540,
      "Solve": 7541,
      "ĠStadium": 7542,
      "51": 7543,
      "ictionary": 7544,
      "sex": 7545,
      "Ġ1958": 7546,
      "Ġteachers": 7547,
      "Par": 7548,
      "Ġdescribes": 7549,
      "71": 7550,
      ".*": 7551,
      "tain": 7552,
      "Ġglobal": 7553,
      "53": 7554,
      "bow": 7555,
      "Ġmist": 7556,
      "ĠOffic": 7557,
      "ĠBrad": 7558,
      "Ġstorage": 7559,
      "ĠFair": 7560,
      "Ġlaunch": 7561,
      "Ġstrategy": 7562,
      "ĠJon": 7563,
      "can": 7564,
      ",-": 7565,
      "ronze": 7566,
      "Ġcontained": 7567,
      "Ġtesting": 7568,
      "Ġaccur": 7569,
      "ĠOxford": 7570,
      "Ġïĥ": 7571,
      "digit": 7572,
      "anged": 7573,
      "Ġdial": 7574,
      "ourse": 7575,
      "Frequency": 7576,
      "Ġpurposes": 7577,
      "ĠPop": 7578,
      "Ġ1959": 7579,
      "Ġmoistur": 7580,
      "ĠOrganization": 7581,
      "69": 7582,
      "ashion": 7583,
      "ĠSwedish": 7584,
      "Ġrespective": 7585,
      "ĠRegister": 7586,
      "ĠStandard": 7587,
      "bias": 7588,
      "adelphia": 7589,
      "ĠNetwork": 7590,
      "Ġoccasion": 7591,
      "tario": 7592,
      "ĠBand": 7593,
      "ĠNether": 7594,
      "Ġwarm": 7595,
      "Ġclause": 7596,
      "PT": 7597,
      "Ġhall": 7598,
      "safety": 7599,
      "Resp": 7600,
      "Ġcircles": 7601,
      "inity": 7602,
      "Index": 7603,
      "Ġstructures": 7604,
      "Ġvoc": 7605,
      "uing": 7606,
      "ĠAbout": 7607,
      "Ġsubsequent": 7608,
      "ĠTechnology": 7609,
      "iments": 7610,
      "lem": 7611,
      "Ġaw": 7612,
      "ĠPrinc": 7613,
      "Ġnarrow": 7614,
      "ĠDue": 7615,
      "Ġsuitable": 7616,
      "ĠLeon": 7617,
      "Ġanimals": 7618,
      "iency": 7619,
      "OD": 7620,
      "Ġofficials": 7621,
      "ga": 7622,
      "Ġcomedy": 7623,
      "bro": 7624,
      "Ġretrieve": 7625,
      "ĠNose": 7626,
      "ĠNC": 7627,
      "ski": 7628,
      "ĠTravel": 7629,
      "Ġspecifically": 7630,
      "Ġdistingu": 7631,
      "osure": 7632,
      "valuate": 7633,
      "ĠManagement": 7634,
      "kin": 7635,
      "ĠMedical": 7636,
      "Ġhealthy": 7637,
      "Health": 7638,
      "ĠFurther": 7639,
      "Ġtemp": 7640,
      "ographic": 7641,
      "ĠBol": 7642,
      "orrow": 7643,
      "ĠGuard": 7644,
      "url": 7645,
      "cribed": 7646,
      "ailability": 7647,
      "Ġchanging": 7648,
      "ĠRa": 7649,
      "ruck": 7650,
      "Ġtests": 7651,
      "Ġsq": 7652,
      "Ġshipping": 7653,
      "ker": 7654,
      "ĠStock": 7655,
      "ĠNotes": 7656,
      "ĠToronto": 7657,
      "ĠQuad": 7658,
      "03": 7659,
      "ester": 7660,
      "Ġbis": 7661,
      "itled": 7662,
      "Ġdropped": 7663,
      "ĠSym": 7664,
      "ĠBa": 7665,
      "ĠDam": 7666,
      "ĠReturns": 7667,
      "Ġathlet": 7668,
      "VD": 7669,
      "Ġattacks": 7670,
      "Ġpermission": 7671,
      "ĠVen": 7672,
      "iost": 7673,
      "\"})": 7674,
      "Ġsexual": 7675,
      "ĠMaster": 7676,
      "ĠINTEG": 7677,
      "ĠKeep": 7678,
      "Ġutil": 7679,
      "ĠEXISTS": 7680,
      "ĠBon": 7681,
      "ĠIra": 7682,
      "amental": 7683,
      "Recommend": 7684,
      "Ġwild": 7685,
      "Ġ1957": 7686,
      "ĠGen": 7687,
      "ĠJoe": 7688,
      "Ġprompts": 7689,
      "Reg": 7690,
      "Ġeducational": 7691,
      "Ġethnic": 7692,
      "Consider": 7693,
      "Ġsave": 7694,
      "ĠFree": 7695,
      "Ġfestival": 7696,
      "ALU": 7697,
      "ĠBusiness": 7698,
      "Ġpowerful": 7699,
      "Ġcredit": 7700,
      "Ġmoderate": 7701,
      "ĠAtt": 7702,
      "61": 7703,
      "ĠLy": 7704,
      "aste": 7705,
      "pre": 7706,
      "Ġdates": 7707,
      "Ġund": 7708,
      "Ġaudience": 7709,
      "Ġtall": 7710,
      "Ġwearing": 7711,
      "ooking": 7712,
      "LA": 7713,
      "Ġroof": 7714,
      "occer": 7715,
      "ĠPolice": 7716,
      "Ġadvert": 7717,
      "Ġspirit": 7718,
      "Det": 7719,
      "Ġformulas": 7720,
      "ĠNorw": 7721,
      "orph": 7722,
      "Ġcancer": 7723,
      "ĠSanta": 7724,
      "lav": 7725,
      "archar": 7726,
      "ĠTHEN": 7727,
      "OS": 7728,
      "Ġconflict": 7729,
      "Ġlect": 7730,
      "Ġrise": 7731,
      "'(": 7732,
      "Ġelseif": 7733,
      "Ġtopics": 7734,
      "ĠGh": 7735,
      "Ġexponential": 7736,
      "cellent": 7737,
      "elligence": 7738,
      "Ġbeaut": 7739,
      "yo": 7740,
      "Ġharm": 7741,
      "ĠOntario": 7742,
      "ĠCr": 7743,
      "Ġdistricts": 7744,
      "Ġsuggests": 7745,
      "Ġattempts": 7746,
      "icate": 7747,
      "Ġiron": 7748,
      "Ġcert": 7749,
      "ĠMun": 7750,
      "Ġdevice": 7751,
      "Ġoldest": 7752,
      "ĠAff": 7753,
      "Ġaccident": 7754,
      "Ġcopies": 7755,
      "ĊĉĠĠĠĠ": 7756,
      "ifies": 7757,
      "Ġ};": 7758,
      "chestra": 7759,
      "Ġbaseball": 7760,
      "ĠForest": 7761,
      "hire": 7762,
      "ĠMov": 7763,
      "ĠToday": 7764,
      "nel": 7765,
      "ĠWel": 7766,
      "ĠUSA": 7767,
      "ĠOnline": 7768,
      "ĠArm": 7769,
      "Ġbuy": 7770,
      "Ġveget": 7771,
      "eper": 7772,
      "www": 7773,
      "ĊĠĠĠĠĊĠĠĠĠ": 7774,
      "Ġring": 7775,
      "Ġload": 7776,
      "ĠSports": 7777,
      "ĠPhiladelphia": 7778,
      "ĠSab": 7779,
      "Cleanliness": 7780,
      "inson": 7781,
      "Ġheadquarters": 7782,
      "ĠĠĠĠĊĠĠĠ": 7783,
      "Ġinternal": 7784,
      "Ġfounder": 7785,
      "07": 7786,
      "ressive": 7787,
      "ĠCastle": 7788,
      "ĠSimilarly": 7789,
      "talion": 7790,
      "ĠCommunity": 7791,
      "Ġapplying": 7792,
      "ĠPlace": 7793,
      "ĠExplanation": 7794,
      "ĠAut": 7795,
      "Ġ///": 7796,
      "Ġemployees": 7797,
      "ĠColor": 7798,
      "Ġactress": 7799,
      "ustomer": 7800,
      "emale": 7801,
      "western": 7802,
      "Ġmagnitude": 7803,
      "Ġopposition": 7804,
      "isms": 7805,
      "Ġunable": 7806,
      "century": 7807,
      "ĠEconom": 7808,
      "Ġrefused": 7809,
      "ayment": 7810,
      "Ġ1952": 7811,
      "Ġboys": 7812,
      "Ġgar": 7813,
      "Ġinspired": 7814,
      "je": 7815,
      "58": 7816,
      "---": 7817,
      "Ġmarg": 7818,
      "Ġarms": 7819,
      "Ġaffected": 7820,
      "Ġbinomial": 7821,
      "ĠComput": 7822,
      "ĠNations": 7823,
      "Ġroyal": 7824,
      "there": 7825,
      "ĠSche": 7826,
      "Ġnor": 7827,
      "Ġbillion": 7828,
      "grade": 7829,
      "Ġempty": 7830,
      "ĠWilson": 7831,
      "Ġargs": 7832,
      "ĠINTEGER": 7833,
      "Ġsentence": 7834,
      "ĠMike": 7835,
      "ĠSher": 7836,
      "apping": 7837,
      "Ġwet": 7838,
      "Ġemployed": 7839,
      "Ġsculpt": 7840,
      "ureau": 7841,
      "abet": 7842,
      "Ġvillages": 7843,
      "omer": 7844,
      "chen": 7845,
      "ĊĠĠĠĠĠĠĠĠĠĠĠĠĠĠĠĠĊĠĠĠĠĠĠĠĠĠĠĠ": 7846,
      "`;": 7847,
      "ĠRegular": 7848,
      "Good": 7849,
      "ĠDental": 7850,
      "Ġdenominators": 7851,
      "stituting": 7852,
      "Ġfailure": 7853,
      "Ġcylinder": 7854,
      "iostream": 7855,
      "Ġmeasurement": 7856,
      "Dec": 7857,
      "Ġlake": 7858,
      "heim": 7859,
      "Ġneither": 7860,
      "anks": 7861,
      "ĠStart": 7862,
      "Ġsettled": 7863,
      "Ġprinted": 7864,
      "umes": 7865,
      "ĠHun": 7866,
      "Ġvarchar": 7867,
      "Ġ1955": 7868,
      "Ġwarning": 7869,
      "ĠAtlantic": 7870,
      "ushed": 7871,
      "Ġfans": 7872,
      "SA": 7873,
      "urname": 7874,
      "ĠPu": 7875,
      "Ġoccupied": 7876,
      "ĠINTO": 7877,
      "weather": 7878,
      "Ġcopy": 7879,
      "Ġparabola": 7880,
      "defined": 7881,
      "Ġdie": 7882,
      "Ġexplicit": 7883,
      "imensional": 7884,
      "asty": 7885,
      "Ġ1949": 7886,
      "Ġformal": 7887,
      "track": 7888,
      "Ġ46": 7889,
      "ĠMultiplication": 7890,
      "ĠColon": 7891,
      "âĢĿ.": 7892,
      "Ġpremier": 7893,
      "Ġdifferences": 7894,
      "Ġwinter": 7895,
      "FC": 7896,
      "Ġtissue": 7897,
      "Ġdisapp": 7898,
      "dem": 7899,
      "ĠEngineering": 7900,
      "Ġapparent": 7901,
      "ordinate": 7902,
      "ĠNetherlands": 7903,
      "Ġcorpor": 7904,
      "Ġchemical": 7905,
      "Ġcritics": 7906,
      "ĠShort": 7907,
      ")-[": 7908,
      "ĠTotal": 7909,
      "ĠEven": 7910,
      "Î±": 7911,
      "ĠRule": 7912,
      "ennes": 7913,
      "ĠAthlet": 7914,
      "zech": 7915,
      "pa": 7916,
      "Ġauthority": 7917,
      "rupt": 7918,
      "fe": 7919,
      "ĠNaz": 7920,
      "ĠFinance": 7921,
      "Ġ360": 7922,
      "ĠMP": 7923,
      "Ġwants": 7924,
      "Ġtowns": 7925,
      "sky": 7926,
      "ĠSee": 7927,
      "IGH": 7928,
      "icing": 7929,
      "ESC": 7930,
      "Ġhundreds": 7931,
      "iger": 7932,
      "ographer": 7933,
      "Ġcollected": 7934,
      "\"))": 7935,
      "ĠMountain": 7936,
      "Man": 7937,
      "Ġmeasured": 7938,
      "Ġgain": 7939,
      "arry": 7940,
      "otic": 7941,
      "Ġheads": 7942,
      "Ġbrothers": 7943,
      "Ġouter": 7944,
      "days": 7945,
      "Ġsons": 7946,
      "Ġaired": 7947,
      "Ġnone": 7948,
      "ĠProject": 7949,
      "Page": 7950,
      "Price": 7951,
      "Exp": 7952,
      "ĠUt": 7953,
      "una": 7954,
      "Ġcontrast": 7955,
      "title": 7956,
      "Ġrequested": 7957,
      "aming": 7958,
      "ilation": 7959,
      "zen": 7960,
      "Ġgovernor": 7961,
      "IP": 7962,
      "ruby": 7963,
      "iful": 7964,
      "Ġexpertise": 7965,
      "ĠEp": 7966,
      "points": 7967,
      "Ġrear": 7968,
      "Ġchairman": 7969,
      "Ġcoefficients": 7970,
      "Ġcaptain": 7971,
      "ĠHay": 7972,
      "Ġemphas": 7973,
      "ĠSeveral": 7974,
      "ĠProte": 7975,
      "());": 7976,
      "Ġarrested": 7977,
      "ĠWrit": 7978,
      "ĠâĤ": 7979,
      "atabase": 7980,
      "ilton": 7981,
      "ĊĠĠĠĠĠĠĠĠĠĠĠĠĠĠĠĠĠĠĠĠĠĠĠĠ": 7982,
      "}$,": 7983,
      "Ġdoc": 7984,
      "ĠLight": 7985,
      "ĠTa": 7986,
      "osa": 7987,
      "Ġ47": 7988,
      "ĠEmperor": 7989,
      "Ġfruit": 7990,
      "ĠWhich": 7991,
      "Ġreceiving": 7992,
      "incial": 7993,
      "wing": 7994,
      "Ġextensive": 7995,
      "Ġpublication": 7996,
      "ĠJavascript": 7997,
      "09": 7998,
      "Ġconsisting": 7999,
      "Ġ1954": 8000,
      "Ġtrim": 8001,
      "hedral": 8002,
      "Ġdiet": 8003,
      "emic": 8004,
      "Ġfighting": 8005,
      "ĠSom": 8006,
      "ropolitan": 8007,
      "ossible": 8008,
      "#{": 8009,
      "Ġvice": 8010,
      "Ġentitled": 8011,
      "Ġsurfaces": 8012,
      "ĠCaptain": 8013,
      "kes": 8014,
      "Ġsell": 8015,
      "ReadLine": 8016,
      "ystem": 8017,
      "Ġmessages": 8018,
      "ĠWITH": 8019,
      "Ġapart": 8020,
      "ĠFox": 8021,
      "ĠWhe": 8022,
      "59": 8023,
      "Ġord": 8024,
      "Ġclosely": 8025,
      "Ġscal": 8026,
      "Ġexchange": 8027,
      "abad": 8028,
      "Ġexcess": 8029,
      "Ġeconomy": 8030,
      "ĠKir": 8031,
      "\\,": 8032,
      "ĠSerb": 8033,
      "anguage": 8034,
      "ĠEye": 8035,
      "Ġtrigonometric": 8036,
      "Exercise": 8037,
      "Ġcounting": 8038,
      ".\",": 8039,
      "Ġhorse": 8040,
      "Ġopposed": 8041,
      "El": 8042,
      "Ġagent": 8043,
      "ĠMinn": 8044,
      "Ġrob": 8045,
      "ĠIndust": 8046,
      "gency": 8047,
      "ĠFigure": 8048,
      "osophy": 8049,
      "Ġflood": 8050,
      "ĠGro": 8051,
      "Ġinterested": 8052,
      "Ġexception": 8053,
      "La": 8054,
      "oir": 8055,
      "Ġpersons": 8056,
      "Ġbelieve": 8057,
      "Ġruby": 8058,
      "Ġattempted": 8059,
      "apel": 8060,
      "ĠFinal": 8061,
      "zes": 8062,
      "Ġscheduled": 8063,
      "ÂłÂłÂłÂłÂłÂłÂłÂłÂłÂłÂłÂłÂłÂłÂłÂł": 8064,
      "Ġvon": 8065,
      "Ġ1953": 8066,
      "ĠKorean": 8067,
      "Ġseparated": 8068,
      "pping": 8069,
      "Ġstorm": 8070,
      "Ġfuel": 8071,
      "Ġven": 8072,
      "Run": 8073,
      "Ġratios": 8074,
      "Ġleads": 8075,
      "Ġclimate": 8076,
      "Ġholding": 8077,
      "ĠWash": 8078,
      "Ġmatching": 8079,
      "Ġrid": 8080,
      "ĠProperty": 8081,
      "printf": 8082,
      "ĠKhan": 8083,
      "Ġtypical": 8084,
      "Ġtraveled": 8085,
      "Ġpolitics": 8086,
      "Ġeverything": 8087,
      "risk": 8088,
      "terior": 8089,
      "Delta": 8090,
      "Ġspect": 8091,
      "Ġfocused": 8092,
      "ĠTurk": 8093,
      "ĠHy": 8094,
      "ttp": 8095,
      "Ġtail": 8096,
      "Ġtren": 8097,
      "ĠMarsh": 8098,
      "ĠPlan": 8099,
      "ĠChallenge": 8100,
      "Ġneighborhood": 8101,
      "ulum": 8102,
      "eq": 8103,
      "ĠPremier": 8104,
      "Ġcycle": 8105,
      "after": 8106,
      "Ġbackground": 8107,
      "Ġdistributed": 8108,
      "--------------------------------": 8109,
      "jan": 8110,
      "ught": 8111,
      "opher": 8112,
      "achelor": 8113,
      "Ġphone": 8114,
      "Ġnil": 8115,
      "distance": 8116,
      "elly": 8117,
      "haps": 8118,
      "Ġpromotion": 8119,
      "aria": 8120,
      "Ġhope": 8121,
      "Ġtools": 8122,
      "ĠSweden": 8123,
      "ĠBeach": 8124,
      "medium": 8125,
      "Ġarts": 8126,
      "Ġexistence": 8127,
      "Ġtheatre": 8128,
      "Washing": 8129,
      "Ġairport": 8130,
      "Bill": 8131,
      "itors": 8132,
      "ĠGirl": 8133,
      "Part": 8134,
      "Ġcommander": 8135,
      "Ġer": 8136,
      "Ġhighway": 8137,
      "aret": 8138,
      "Ġvs": 8139,
      "Ġarchitecture": 8140,
      "Ġcleaned": 8141,
      "ĠDESC": 8142,
      "Ġshopping": 8143,
      "ĠConnect": 8144,
      "Ġsale": 8145,
      "outine": 8146,
      "Ġfunding": 8147,
      "Ġbroke": 8148,
      "PD": 8149,
      "ĠRegiment": 8150,
      "body": 8151,
      "Ġoverl": 8152,
      "ĠBad": 8153,
      "ĠIraq": 8154,
      "oln": 8155,
      "ello": 8156,
      "Ġdiagn": 8157,
      "Ġconsisted": 8158,
      "ĠWild": 8159,
      "Ġthousands": 8160,
      "Ġvictim": 8161,
      "ĠEarl": 8162,
      "law": 8163,
      "rays": 8164,
      "ĠCOUNT": 8165,
      "ĠBir": 8166,
      "Ġacts": 8167,
      "iary": 8168,
      "Ġbrushing": 8169,
      "icians": 8170,
      "oured": 8171,
      "Ġportray": 8172,
      "Ġple": 8173,
      "*}.": 8174,
      "Ġinvestigation": 8175,
      "ĠPrior": 8176,
      "Ġnet": 8177,
      "ĠNic": 8178,
      "ĠHan": 8179,
      "Out": 8180,
      "Ġtool": 8181,
      "Ġfrequent": 8182,
      "Cost": 8183,
      "Ġinsert": 8184,
      "ĠHuman": 8185,
      "ĠChris": 8186,
      "Ġwalls": 8187,
      "ĠSus": 8188,
      "Rating": 8189,
      "Ġdipl": 8190,
      "ĠGol": 8191,
      "Ġprogramming": 8192,
      "Ġ63": 8193,
      "Ġconcerns": 8194,
      "uzz": 8195,
      "endar": 8196,
      "Ġing": 8197,
      "speed": 8198,
      "Ġ1951": 8199,
      "ĠCost": 8200,
      "ĠRegion": 8201,
      "Ġvac": 8202,
      "Ġhypothes": 8203,
      "abel": 8204,
      "ht": 8205,
      "ĠStr": 8206,
      "lik": 8207,
      "Ġadvance": 8208,
      "ĠCzech": 8209,
      "ĠHandling": 8210,
      "HL": 8211,
      "Ġwrong": 8212,
      "ĠDoctor": 8213,
      "Ġadult": 8214,
      "ĠNight": 8215,
      "ITY": 8216,
      "Ġqualified": 8217,
      "Ġparenthes": 8218,
      "Ġpun": 8219,
      "Ġinstall": 8220,
      "abled": 8221,
      "Ġment": 8222,
      "Ġstarring": 8223,
      "Ġcauses": 8224,
      "athan": 8225,
      "Ġbact": 8226,
      "Ġfought": 8227,
      "imary": 8228,
      "ĠNative": 8229,
      "Ġweb": 8230,
      "Ġtownship": 8231,
      "Ġtal": 8232,
      "Ġtoward": 8233,
      "ĠClean": 8234,
      "ĠConvert": 8235,
      "Ġlands": 8236,
      "Ġpolygon": 8237,
      "Ġguest": 8238,
      "ĠStudent": 8239,
      "Ġblow": 8240,
      "ĠNa": 8241,
      "Ġstands": 8242,
      "Ġstrength": 8243,
      "Ġfresh": 8244,
      "Ġpartial": 8245,
      "CON": 8246,
      "inth": 8247,
      "RU": 8248,
      "ĠMoh": 8249,
      "ĠWalk": 8250,
      "Ġgeometry": 8251,
      "position": 8252,
      "Ġvent": 8253,
      "Ġ1918": 8254,
      "ĠDavis": 8255,
      "Ġtemple": 8256,
      "Ġ1936": 8257,
      "ĠAh": 8258,
      "Ġboat": 8259,
      "Ġrestaurant": 8260,
      "Ġcontributed": 8261,
      "Ġbass": 8262,
      "Ġsolved": 8263,
      "ĠCult": 8264,
      "Ġturns": 8265,
      "ĠBh": 8266,
      "Ġmaintained": 8267,
      "Ġvirt": 8268,
      "ĠAdminist": 8269,
      "Ġemail": 8270,
      "Ġwashed": 8271,
      "[\\": 8272,
      "ĠPers": 8273,
      "ching": 8274,
      "Ġfunds": 8275,
      "cons": 8276,
      "Ġec": 8277,
      "Mod": 8278,
      "180": 8279,
      "ĠCommand": 8280,
      "person": 8281,
      "holder": 8282,
      "ĠAppl": 8283,
      "Ġsituations": 8284,
      "hair": 8285,
      "oken": 8286,
      "ogether": 8287,
      "Mon": 8288,
      "Ġ{\"": 8289,
      "ĠHu": 8290,
      "ÂĢÂ": 8291,
      "Ġsty": 8292,
      "ĠEND": 8293,
      "Ġattacked": 8294,
      "ĠAgain": 8295,
      "ĠTry": 8296,
      "Ġchose": 8297,
      "Ġcombat": 8298,
      "ĠContin": 8299,
      "ĠEP": 8300,
      "ĠCensus": 8301,
      "illery": 8302,
      "mad": 8303,
      "Ġcircuit": 8304,
      "idance": 8305,
      "Ġ=\\": 8306,
      "}^": 8307,
      "Ġencounter": 8308,
      "Ġtele": 8309,
      "ĠFund": 8310,
      "ifferent": 8311,
      "ĠFreder": 8312,
      "ĠNorm": 8313,
      "iat": 8314,
      "asters": 8315,
      "vals": 8316,
      "Ġweekly": 8317,
      "Ġconfirm": 8318,
      "olis": 8319,
      "ĠIV": 8320,
      "ints": 8321,
      "ĠTen": 8322,
      "#!/": 8323,
      "CAA": 8324,
      "Ġshortly": 8325,
      "Ġdifferential": 8326,
      "ĠVALU": 8327,
      "Ġstret": 8328,
      "Ġinstitutions": 8329,
      ":\");": 8330,
      "Ġcommissioned": 8331,
      "textbf": 8332,
      "Ġquantities": 8333,
      "Ġ1938": 8334,
      "oses": 8335,
      "ĠEquation": 8336,
      "Ġfram": 8337,
      "Ġinner": 8338,
      "ori": 8339,
      "Ġguidelines": 8340,
      "&=": 8341,
      "Ġcustomers": 8342,
      "Ġformerly": 8343,
      "write": 8344,
      "ĠSem": 8345,
      "AA": 8346,
      "ego": 8347,
      "Ġultimately": 8348,
      "Ġhence": 8349,
      "Work": 8350,
      "Case": 8351,
      "ongue": 8352,
      "message": 8353,
      "itants": 8354,
      "pur": 8355,
      "ĠJoh": 8356,
      "Ġtenth": 8357,
      "omot": 8358,
      "Ġasym": 8359,
      "olas": 8360,
      "Ġunless": 8361,
      "https": 8362,
      "Ġrein": 8363,
      "Ġoperator": 8364,
      "Ġbalance": 8365,
      "ĠMari": 8366,
      "Ġtwelve": 8367,
      "cow": 8368,
      "ĠLady": 8369,
      "ĠWat": 8370,
      "Ġfounding": 8371,
      "rypt": 8372,
      "Ġresear": 8373,
      "bell": 8374,
      "Ġretirement": 8375,
      "Ġoffices": 8376,
      "ultane": 8377,
      "Ġahead": 8378,
      "Ġvocal": 8379,
      "ĠArthur": 8380,
      "ĠJunior": 8381,
      "Ġenters": 8382,
      "Ġ(;": 8383,
      "lyn": 8384,
      "Ġphase": 8385,
      "Ġdecide": 8386,
      "Ġparticipate": 8387,
      "Ġmodified": 8388,
      "ML": 8389,
      "Ġnegot": 8390,
      "ĠKal": 8391,
      "Ġsine": 8392,
      "Ġast": 8393,
      "!\");": 8394,
      "Ġox": 8395,
      "Engineer": 8396,
      "ĠÂ·": 8397,
      "Ġextremely": 8398,
      "edition": 8399,
      "Ġcompound": 8400,
      "anna": 8401,
      "ĠCop": 8402,
      "eral": 8403,
      "Ġdoor": 8404,
      "Ġbinary": 8405,
      "Ġfoundation": 8406,
      "Ġhypotenuse": 8407,
      "writer": 8408,
      "Ġcomponent": 8409,
      "ĠInitialize": 8410,
      "ĠOperations": 8411,
      "ĠMexican": 8412,
      "uls": 8413,
      "Ġaged": 8414,
      "Ġcorrectly": 8415,
      "Ġshall": 8416,
      "Ġuniform": 8417,
      "Ġsomew": 8418,
      "Ġposts": 8419,
      "ÂĿÂĲ": 8420,
      "Ġpolic": 8421,
      "ĠAlf": 8422,
      "orig": 8423,
      "Ġresc": 8424,
      "Ġenvironmental": 8425,
      ")/(": 8426,
      "ĠFederation": 8427,
      "ĠRound": 8428,
      "estamp": 8429,
      "aset": 8430,
      "ache": 8431,
      "ĠStephen": 8432,
      "Ġcandidates": 8433,
      "ourney": 8434,
      "abs": 8435,
      "month": 8436,
      "lywood": 8437,
      "Ġrelational": 8438,
      "ĠDefin": 8439,
      "ĠTransportation": 8440,
      "zo": 8441,
      "rollment": 8442,
      "Ġmig": 8443,
      "Ġcrime": 8444,
      "Ġpermanent": 8445,
      "ĠIntern": 8446,
      "orders": 8447,
      "Ġincident": 8448,
      "ĠFrancis": 8449,
      "ĠCH": 8450,
      "Ġsurname": 8451,
      "Ġdemonstrates": 8452,
      "/(": 8453,
      "ĠÎĶ": 8454,
      "ĠAbb": 8455,
      "Ġsought": 8456,
      "Ġopportunity": 8457,
      "csv": 8458,
      "chers": 8459,
      "that": 8460,
      "Ġdiagonal": 8461,
      "Ġwear": 8462,
      "ĠExec": 8463,
      "Ġincorporated": 8464,
      "ĠRon": 8465,
      "igation": 8466,
      "Ġ}$$": 8467,
      "Ġ99": 8468,
      "Ġworldwide": 8469,
      "responsibility": 8470,
      "Ġaid": 8471,
      "ĠKim": 8472,
      "ĠGreg": 8473,
      "ĠIns": 8474,
      "Ġpromote": 8475,
      "Ġcompleting": 8476,
      "ĠBureau": 8477,
      "Ġtechnical": 8478,
      "ĉĉ": 8479,
      "Ġdocumentary": 8480,
      "Ġmatrices": 8481,
      "Ġengagement": 8482,
      "anth": 8483,
      "aska": 8484,
      "Ġfaced": 8485,
      "ĠJournal": 8486,
      "ruits": 8487,
      "Ġfine": 8488,
      "Div": 8489,
      "ĠPa": 8490,
      "Ġwins": 8491,
      "Ġsubtracting": 8492,
      "Ġexperienced": 8493,
      "Ġpenal": 8494,
      "ooth": 8495,
      "ĠCre": 8496,
      "fessional": 8497,
      "Ġdivisor": 8498,
      "net": 8499,
      "Ear": 8500,
      "Av": 8501,
      "mann": 8502,
      "Ġheavily": 8503,
      "ĠGer": 8504,
      "Ġshell": 8505,
      "Ġdimensions": 8506,
      "parent": 8507,
      "istant": 8508,
      "Ġrestrict": 8509,
      "Ġcausing": 8510,
      "Ġbrown": 8511,
      "Ġwindow": 8512,
      "ipes": 8513,
      "Ġarranged": 8514,
      "Ġconsequ": 8515,
      "Ġimages": 8516,
      "Ġreaching": 8517,
      "Ġconstitution": 8518,
      "ĠPythagorean": 8519,
      "igible": 8520,
      "ĠAmericans": 8521,
      "ĠSpace": 8522,
      "Ġ53": 8523,
      "ĠLegisl": 8524,
      "Ġbrick": 8525,
      "esota": 8526,
      "erts": 8527,
      "ĠHal": 8528,
      "king": 8529,
      "Ġcenturies": 8530,
      "aven": 8531,
      "ĠManc": 8532,
      "=$(": 8533,
      "Ġexplained": 8534,
      "enna": 8535,
      "Ġconsidering": 8536,
      "ĠHo": 8537,
      "Ġentirely": 8538,
      "Ġkilomet": 8539,
      "ivals": 8540,
      "ĠRom": 8541,
      "Ġpassenger": 8542,
      "ĠMA": 8543,
      "`).": 8544,
      "oming": 8545,
      "Ġcomposition": 8546,
      "Personal": 8547,
      "ĠVideo": 8548,
      "ĠVALUES": 8549,
      "Ġgarden": 8550,
      "Ġsanit": 8551,
      "ĠPrize": 8552,
      "ĠIntroduction": 8553,
      "Ġprofit": 8554,
      "Ġsupporting": 8555,
      "Ġpolynomials": 8556,
      "hips": 8557,
      "INT": 8558,
      "ĠHeart": 8559,
      "symptoms": 8560,
      "Ġwrest": 8561,
      "Ġclock": 8562,
      "Ġtor": 8563,
      "onsin": 8564,
      "ĠJane": 8565,
      "ĠMarg": 8566,
      "ĠGolden": 8567,
      "ĠPolynomial": 8568,
      "Ġisn": 8569,
      "ĠSunday": 8570,
      "Ġimproved": 8571,
      "prise": 8572,
      "abul": 8573,
      "Ġsymmetry": 8574,
      "Ġjump": 8575,
      "ĠRat": 8576,
      "car": 8577,
      "Ġplease": 8578,
      "Ġgeneration": 8579,
      "bing": 8580,
      "mid": 8581,
      "ĠIndones": 8582,
      "{{\\": 8583,
      "values": 8584,
      "cot": 8585,
      "Ġcoin": 8586,
      "Te": 8587,
      "spec": 8588,
      "don": 8589,
      "aki": 8590,
      "Ġ1937": 8591,
      "ĠAuthor": 8592,
      "ĠServices": 8593,
      "pez": 8594,
      "Ġmel": 8595,
      "Ġwealth": 8596,
      "Ġadvantage": 8597,
      "ĠSteve": 8598,
      "Ġthick": 8599,
      "ĠBor": 8600,
      "Ġsentiment": 8601,
      "urches": 8602,
      "Ġinvited": 8603,
      "ancel": 8604,
      "Ġexpect": 8605,
      "ĠFord": 8606,
      "Ġ#{": 8607,
      "Ġcomplement": 8608,
      "rip": 8609,
      "organ": 8610,
      "Ġtouchdown": 8611,
      "Ġguard": 8612,
      "essions": 8613,
      "ĠTal": 8614,
      "pool": 8615,
      "ĠLt": 8616,
      "Ġfilled": 8617,
      "isconsin": 8618,
      "}`);": 8619,
      "ĠĊĠĠĠĠĠĠĠĠĠĠĠĠĠĠĠĠĠĠĠ": 8620,
      "Ġ\\,": 8621,
      "orney": 8622,
      "power": 8623,
      "phone": 8624,
      "Ġmayor": 8625,
      "Ġhockey": 8626,
      "Ġbeginner": 8627,
      "Ġproducing": 8628,
      "Ġes": 8629,
      "ĠPit": 8630,
      "ami": 8631,
      "Multiply": 8632,
      "Ġdestination": 8633,
      "Ġessential": 8634,
      "itoring": 8635,
      "ĠLewis": 8636,
      "eting": 8637,
      "Ġdefense": 8638,
      "rolled": 8639,
      "Ġnested": 8640,
      "aine": 8641,
      "====": 8642,
      "ho": 8643,
      "status": 8644,
      "Ġinfluenced": 8645,
      "iser": 8646,
      "Ġquadrilateral": 8647,
      "ĠLind": 8648,
      "ĠFle": 8649,
      "Ġregistered": 8650,
      "dimensional": 8651,
      "frame": 8652,
      "imental": 8653,
      "wick": 8654,
      "PR": 8655,
      "std": 8656,
      "Ġinstitution": 8657,
      "ĠRoss": 8658,
      "Ġâī¤": 8659,
      "My": 8660,
      "ĠRural": 8661,
      "eller": 8662,
      "ĠNag": 8663,
      "ĠVo": 8664,
      "Ġdomestic": 8665,
      "ĠDE": 8666,
      "ĠTit": 8667,
      "rum": 8668,
      "ĠMinnesota": 8669,
      "Ġimplemented": 8670,
      "Over": 8671,
      "Ġreserv": 8672,
      "Ġsleep": 8673,
      "Ġ1919": 8674,
      "Ġfinishing": 8675,
      "Ġedges": 8676,
      "Ass": 8677,
      "ĠCountry": 8678,
      "Ġbed": 8679,
      "ĠSlov": 8680,
      "Ġroutes": 8681,
      "Ġextract": 8682,
      "arks": 8683,
      "Ġindependence": 8684,
      "Ġclin": 8685,
      "Ġmole": 8686,
      "Ġfat": 8687,
      "Ġdepos": 8688,
      "ls": 8689,
      "eman": 8690,
      "post": 8691,
      "ĠSystems": 8692,
      "ĠEL": 8693,
      "Ġhero": 8694,
      "Ġcore": 8695,
      "Ġbra": 8696,
      "Ġextension": 8697,
      "ĠBall": 8698,
      "ĠFire": 8699,
      "agh": 8700,
      "Ġassumed": 8701,
      "ryption": 8702,
      "Ġsignal": 8703,
      "tech": 8704,
      "ĠCambridge": 8705,
      "Ġdisput": 8706,
      "earing": 8707,
      "CRE": 8708,
      "ĠKansas": 8709,
      "Ġprocessing": 8710,
      "Ġsust": 8711,
      "Ġcastle": 8712,
      "Ġsun": 8713,
      "erms": 8714,
      "ideos": 8715,
      "Can": 8716,
      "Ġherself": 8717,
      "ĠSciences": 8718,
      "aud": 8719,
      "Ġintroduction": 8720,
      "Ġspeech": 8721,
      "ĠAL": 8722,
      "ĠÏ": 8723,
      "puts": 8724,
      "ĠTriangle": 8725,
      "Ġrain": 8726,
      "Ġrevolution": 8727,
      "lets": 8728,
      "SH": 8729,
      "owa": 8730,
      "Ġshares": 8731,
      "Ġrecipro": 8732,
      "olished": 8733,
      "ĠSquad": 8734,
      "Ġdecades": 8735,
      "Ġsmok": 8736,
      "ĠDesign": 8737,
      "Ġ250": 8738,
      "Ġstadium": 8739,
      "Ġ81": 8740,
      "Ġentrance": 8741,
      "season": 8742,
      "ĠUpon": 8743,
      "ĠSav": 8744,
      "ĠDistrib": 8745,
      "But": 8746,
      "ĠBudd": 8747,
      "San": 8748,
      "Ġinstruct": 8749,
      "including": 8750,
      "($\"": 8751,
      "Ġcircular": 8752,
      "Ġign": 8753,
      "ĠWisconsin": 8754,
      "Ġabandoned": 8755,
      "ĠMelbourne": 8756,
      "Ġcone": 8757,
      "Ġprotein": 8758,
      "Ġcovering": 8759,
      "ĠMoscow": 8760,
      "Ġprecipitation": 8761,
      "Ġenemy": 8762,
      "ĠObject": 8763,
      "Ġmultiples": 8764,
      "Ġlaid": 8765,
      "weets": 8766,
      "Ġsubjects": 8767,
      "such": 8768,
      "cut": 8769,
      "ĠDVD": 8770,
      "Ġacceleration": 8771,
      "ĠLCM": 8772,
      "oli": 8773,
      "Ġfinance": 8774,
      "Point": 8775,
      "ĠDC": 8776,
      "ĠMERGE": 8777,
      "Ġmerch": 8778,
      "ĠAnth": 8779,
      "Ġcharges": 8780,
      "ĠTake": 8781,
      "Ġintegration": 8782,
      "Ġcas": 8783,
      "uous": 8784,
      "Ġpartnership": 8785,
      "ĠSix": 8786,
      "ĠLearning": 8787,
      "Ġbrack": 8788,
      "Ġ1917": 8789,
      "Ġfactorization": 8790,
      "Ġpreced": 8791,
      "ĠNail": 8792,
      "egian": 8793,
      "Ġestablishment": 8794,
      "ĠĊĠĠĠĠ": 8795,
      "Ġegg": 8796,
      "Ġpy": 8797,
      "Ġvoted": 8798,
      "ĠWars": 8799,
      "ĠHart": 8800,
      "ocese": 8801,
      "ĠWinter": 8802,
      "ĠSingap": 8803,
      "struct": 8804,
      "incoln": 8805,
      "icts": 8806,
      "Ġguns": 8807,
      "Ġselling": 8808,
      "Ġengaged": 8809,
      "witter": 8810,
      "ĠSneezing": 8811,
      "sey": 8812,
      "ĠFA": 8813,
      "ĠTok": 8814,
      "Ġboundary": 8815,
      "Ġbronze": 8816,
      "Ġbands": 8817,
      "IGN": 8818,
      "ĠMemorial": 8819,
      "Ġmerged": 8820,
      "Ġdecor": 8821,
      "ĠMake": 8822,
      "ĠWHEN": 8823,
      "inton": 8824,
      "Ġdetermining": 8825,
      "regon": 8826,
      "pection": 8827,
      "ATH": 8828,
      "night": 8829,
      "friend": 8830,
      "ĠĊĠĠĠĠĠĠĠĠĠ": 8831,
      "MP": 8832,
      "Ġmodify": 8833,
      "ĠJer": 8834,
      "Ġheard": 8835,
      "ogue": 8836,
      "overty": 8837,
      "Ġeducated": 8838,
      "ĠHotel": 8839,
      "ĠaËĨ": 8840,
      "ĠBalt": 8841,
      "Ġcomparing": 8842,
      "Ġsick": 8843,
      "Ġbirds": 8844,
      "Ġmix": 8845,
      "Ġclearly": 8846,
      "Ġbran": 8847,
      "Ġ1900": 8848,
      "Ġexpenses": 8849,
      "rational": 8850,
      "ĠBrother": 8851,
      "Ġpassengers": 8852,
      "Ne": 8853,
      "Mar": 8854,
      "Ġcrow": 8855,
      "pace": 8856,
      "oto": 8857,
      "âĢ¦âĢ¦âĢ¦âĢ¦": 8858,
      "Ġmoves": 8859,
      "eli": 8860,
      "2023": 8861,
      "Ġsymbols": 8862,
      "ĠScore": 8863,
      "Ġrepresentative": 8864,
      "ĠRE": 8865,
      "ocol": 8866,
      "Ġlyrics": 8867,
      "Trust": 8868,
      "ĠPhys": 8869,
      "Ġbroken": 8870,
      "Ġframe": 8871,
      "Ġanimal": 8872,
      "awn": 8873,
      "ĠCode": 8874,
      "atern": 8875,
      "ïĢ": 8876,
      "Ġcloser": 8877,
      "CE": 8878,
      "Ġdeploy": 8879,
      "ĠBuilding": 8880,
      "non": 8881,
      "Ġracing": 8882,
      "300": 8883,
      "Ġcreat": 8884,
      "dis": 8885,
      "Ġsteel": 8886,
      "Ġcreates": 8887,
      "ĠSubtract": 8888,
      "Ġsteam": 8889,
      "Word": 8890,
      "ĠChannel": 8891,
      "ĠPrevent": 8892,
      "ĠRelations": 8893,
      "Ġsegments": 8894,
      "Ġpages": 8895,
      "Ġballs": 8896,
      "ĠPatient": 8897,
      "Ġassistance": 8898,
      "Ġfashion": 8899,
      "equation": 8900,
      "ĠPier": 8901,
      "duate": 8902,
      "ĠLabor": 8903,
      "dt": 8904,
      "ĠRest": 8905,
      "ĠThough": 8906,
      "Ġnick": 8907,
      "ĠAst": 8908,
      "ĠNCAA": 8909,
      "ĠTreat": 8910,
      "wax": 8911,
      "Ġescape": 8912,
      "ĠMas": 8913,
      "vanced": 8914,
      "Ġ\\;": 8915,
      "Ġ1935": 8916,
      "Ġstanding": 8917,
      "Top": 8918,
      "Ġbenefit": 8919,
      "oster": 8920,
      "Ġ1914": 8921,
      "ĠEs": 8922,
      "Ġconnect": 8923,
      "ĠTai": 8924,
      "tainment": 8925,
      "Ġinstalled": 8926,
      "Class": 8927,
      "ymn": 8928,
      "More": 8929,
      "Ġprogramme": 8930,
      "Method": 8931,
      "attle": 8932,
      "determine": 8933,
      "Ġdanger": 8934,
      "ĠTurn": 8935,
      "ĠStudies": 8936,
      "Ġfaces": 8937,
      "Ġrival": 8938,
      "ennessee": 8939,
      "Ġalleged": 8940,
      "Ġban": 8941,
      "Ġmeasurements": 8942,
      "ĠMunicip": 8943,
      "Ġgod": 8944,
      "ĠBru": 8945,
      "start": 8946,
      "Ġlandsc": 8947,
      "ĠHard": 8948,
      "Ġwish": 8949,
      "><": 8950,
      "Ġhop": 8951,
      "Ġclassical": 8952,
      "ĠInvest": 8953,
      "aph": 8954,
      "ih": 8955,
      "ĠJews": 8956,
      "ĠST": 8957,
      "ĠMic": 8958,
      "1000": 8959,
      "dec": 8960,
      "ĠBaron": 8961,
      "Ġshif": 8962,
      "Ġhired": 8963,
      "Ġtrained": 8964,
      "Ġasking": 8965,
      "Ġsanitizer": 8966,
      "ĠJacob": 8967,
      "Ġimmediate": 8968,
      "Ġsymptom": 8969,
      "Ġ96": 8970,
      "ĠMilitary": 8971,
      "Ġrich": 8972,
      "'d": 8973,
      "ashed": 8974,
      "ĠHom": 8975,
      "ĠHou": 8976,
      "ĠOur": 8977,
      "Ġfleet": 8978,
      "Ġrom": 8979,
      "Ġft": 8980,
      "Ġintersect": 8981,
      "Ġoccas": 8982,
      "Ġrecognition": 8983,
      "ĠChristmas": 8984,
      "Ġpilot": 8985,
      "Ġinfinite": 8986,
      "Toilet": 8987,
      "ĠCape": 8988,
      "Ġvolunte": 8989,
      "Ġdetermin": 8990,
      "255": 8991,
      "Ġelectronic": 8992,
      "Ġprices": 8993,
      "arant": 8994,
      "ĠConstitution": 8995,
      "Ġgenerated": 8996,
      "Ġopinion": 8997,
      "Ġ($": 8998,
      "uese": 8999,
      "task": 9000,
      "NS": 9001,
      "ĠCourse": 9002,
      "ĠAsk": 9003,
      "agan": 9004,
      "Ġhomes": 9005,
      "Analysis": 9006,
      "ilit": 9007,
      "ÑĤ": 9008,
      "ĠDor": 9009,
      "ĠOF": 9010,
      "ĠCab": 9011,
      "Ġthinking": 9012,
      "ĠGil": 9013,
      "Ġjunior": 9014,
      "Ġreign": 9015,
      "Ġpup": 9016,
      "height": 9017,
      "emble": 9018,
      "Ġpossibly": 9019,
      "Br": 9020,
      "Ġ1929": 9021,
      "Ġcosine": 9022,
      "ef": 9023,
      "Condition": 9024,
      "ĠCas": 9025,
      "Ġprepared": 9026,
      "Ġliterary": 9027,
      "Ġaccompan": 9028,
      "ĠAz": 9029,
      "igma": 9030,
      "this": 9031,
      "ĠNorway": 9032,
      "ĠMcG": 9033,
      "break": 9034,
      "ĠManchester": 9035,
      "Ġjudge": 9036,
      "Ġliqu": 9037,
      "Ġcomposer": 9038,
      "ĠColorado": 9039,
      "fortable": 9040,
      "ads": 9041,
      "ĠIndiana": 9042,
      "ĠHoly": 9043,
      "Ġprinciple": 9044,
      "Ġweapons": 9045,
      "Ġinaug": 9046,
      "Ġindicated": 9047,
      "ega": 9048,
      "aping": 9049,
      "}\"": 9050,
      "ĠMissouri": 9051,
      "Ġtemperatures": 9052,
      "Ġdataset": 9053,
      "going": 9054,
      "Ġexecuted": 9055,
      "Ġ1933": 9056,
      "ĠGeometry": 9057,
      "ĠQueensland": 9058,
      "ĠOcean": 9059,
      "ĠBrun": 9060,
      "Ġchallenge": 9061,
      "ĠMalays": 9062,
      "private": 9063,
      "Ġ84": 9064,
      "Ġbodies": 9065,
      "ĠNorwegian": 9066,
      "SR": 9067,
      "Ġtouching": 9068,
      "imeters": 9069,
      "She": 9070,
      "Ġjournalist": 9071,
      "ĠStra": 9072,
      "Ġsimultane": 9073,
      "isa": 9074,
      "ĠBathing": 9075,
      "gal": 9076,
      "Ġoperate": 9077,
      "ĠLabour": 9078,
      "Ġfolk": 9079,
      "Ġresigned": 9080,
      "ĠRight": 9081,
      "Ġargued": 9082,
      "Ġnuclear": 9083,
      "Ġracial": 9084,
      "Ġdriving": 9085,
      "Ġ1928": 9086,
      "ĠBah": 9087,
      "(&": 9088,
      "ĠDemocrat": 9089,
      "lah": 9090,
      "Ġfactory": 9091,
      "ĠAlb": 9092,
      "mes": 9093,
      "ĠLincoln": 9094,
      "Ġdollars": 9095,
      "ika": 9096,
      "Ġsend": 9097,
      "Ġasks": 9098,
      "Ġbenefits": 9099,
      "Ġacid": 9100,
      "Ġroads": 9101,
      "ambda": 9102,
      "Ġconj": 9103,
      "Ġsail": 9104,
      "Billboard": 9105,
      "ĠPlaces": 9106,
      "Ġgrid": 9107,
      "ĠCart": 9108,
      "Ġcricket": 9109,
      "Ð½": 9110,
      "ĠScanner": 9111,
      "Ġregarded": 9112,
      "Ġprocedures": 9113,
      "Ġconcluded": 9114,
      "Ġceremony": 9115,
      "ĠLead": 9116,
      "ĠTennessee": 9117,
      "Ġ600": 9118,
      "ariance": 9119,
      "Tech": 9120,
      "Ġconversion": 9121,
      "Ġwhereas": 9122,
      "Ġskill": 9123,
      "Ġgraduate": 9124,
      "Ġsac": 9125,
      "Ġlatest": 9126,
      "Ġaspects": 9127,
      "istical": 9128,
      "Ġdevices": 9129,
      "Ġearliest": 9130,
      "ĠPhilippines": 9131,
      "ĠAlbert": 9132,
      "success": 9133,
      "Ġvisible": 9134,
      "itely": 9135,
      "kh": 9136,
      "Ġcod": 9137,
      "ĠMiller": 9138,
      "Ġlists": 9139,
      "Ġped": 9140,
      "Ġsurg": 9141,
      "}^{\\": 9142,
      "ĠDun": 9143,
      "aga": 9144,
      "ovic": 9145,
      "java": 9146,
      "OP": 9147,
      "Ġdiscussed": 9148,
      "Ġeffectively": 9149,
      "imation": 9150,
      "ĠHands": 9151,
      "Age": 9152,
      "ĠValueError": 9153,
      "WH": 9154,
      "ĠVietnam": 9155,
      "Ġ1934": 9156,
      "CTION": 9157,
      "400": 9158,
      "panic": 9159,
      "Ġdelay": 9160,
      "cup": 9161,
      "dated": 9162,
      "ĠBurn": 9163,
      "([": 9164,
      "ĠSri": 9165,
      "ĠSon": 9166,
      "Ġkeeping": 9167,
      "Ġreplacement": 9168,
      "Ġcup": 9169,
      "ateur": 9170,
      "Ġerrors": 9171,
      "Ġbriefly": 9172,
      "Ġreality": 9173,
      "(\"%": 9174,
      "Ġreaction": 9175,
      "ĠQuebec": 9176,
      "but": 9177,
      "aints": 9178,
      "Ġlock": 9179,
      "Ġprinting": 9180,
      "Ġcombinations": 9181,
      "Ġ$$(": 9182,
      "Ġstudying": 9183,
      "dist": 9184,
      "ĠSingapore": 9185,
      "ĠOregon": 9186,
      "Ġready": 9187,
      "ĠTan": 9188,
      "ĠConc": 9189,
      "Ġmanner": 9190,
      "rants": 9191,
      "Ġattached": 9192,
      "Ġscenes": 9193,
      "infection": 9194,
      "iversary": 9195,
      "ĠAny": 9196,
      "Ġgrades": 9197,
      "Ġ(\\": 9198,
      "ommod": 9199,
      "ÑĢ": 9200,
      "Ġfreedom": 9201,
      "iva": 9202,
      "Ġexhibition": 9203,
      "egree": 9204,
      "Ġvir": 9205,
      "Ġsole": 9206,
      "Ġobservations": 9207,
      "edia": 9208,
      "Ġtranslation": 9209,
      "ordan": 9210,
      "ĠMir": 9211,
      "Ġinhabitants": 9212,
      "Printf": 9213,
      "Ġbases": 9214,
      "ĠïĤ": 9215,
      "Ġinterests": 9216,
      "Ġcrim": 9217,
      "anga": 9218,
      "Ġphr": 9219,
      "Ġfavour": 9220,
      "Acc": 9221,
      "Ġcompete": 9222,
      "Ġ57": 9223,
      "âĨĴ": 9224,
      "Ġages": 9225,
      "ĠBarb": 9226,
      "Ġasympt": 9227,
      "Ġmoth": 9228,
      "Ġrub": 9229,
      "urric": 9230,
      "agues": 9231,
      "ĠMaryland": 9232,
      "ĠĊĊĠĠĠ": 9233,
      "erto": 9234,
      "ĠAustria": 9235,
      "Ġ62": 9236,
      "Ġplayoff": 9237,
      "Ġdictionary": 9238,
      "ĠForeign": 9239,
      "Ġteach": 9240,
      "ĠAli": 9241,
      "omy": 9242,
      "ĠPope": 9243,
      "Ġcarrying": 9244,
      "Ġlongest": 9245,
      ".'": 9246,
      "atur": 9247,
      "ĠÂłĠÂłĠÂłĠÂłĠÂłĠÂłĠÂłĠÂł": 9248,
      "ĠFO": 9249,
      "áħ": 9250,
      "Ġzeros": 9251,
      "Ġ1910": 9252,
      "áĦ": 9253,
      "IR": 9254,
      "uther": 9255,
      ")$.": 9256,
      "Ġcotton": 9257,
      "kg": 9258,
      "risis": 9259,
      "ĠBos": 9260,
      "EE": 9261,
      "ĠAffairs": 9262,
      "igonometry": 9263,
      "vo": 9264,
      "Ġmedicine": 9265,
      "Ġ66": 9266,
      "related": 9267,
      "oly": 9268,
      "roke": 9269,
      "Ġconvent": 9270,
      "ĠLast": 9271,
      "Ġzone": 9272,
      "Ġdefend": 9273,
      "rine": 9274,
      "Ġsignificantly": 9275,
      "idden": 9276,
      "Ġseventh": 9277,
      "Ġsubstant": 9278,
      "$=": 9279,
      "These": 9280,
[...]
